<unk>	0
<s>	0
</s>	0
.	-3.1186
,	-3.24546
▁ja	-3.77635
n	-3.88483
▁	-4.42987
a	-4.44753
▁on	-4.61176
t	-4.72021
▁oli	-4.89939
-	-4.91526
▁hän	-4.94361
in	-5.13158
▁"	-5.23834
en	-5.27811
s	-5.49532
an	-5.53125
▁se	-5.603
ssa	-5.65595
sta	-5.66664
▁ei	-5.6897
▁että	-5.74504
i	-5.76377
:	-5.81531
▁--	-5.83979
▁mutta	-5.86408
ä	-5.88319
ta	-5.90798
▁hänen	-5.91579
▁joka	-5.97171
kin	-6.0356
lle	-6.04538
"	-6.05705
▁(	-6.0724
ni	-6.08037
▁vuonna	-6.08515
▁sen	-6.08856
ksi	-6.09211
▁kun	-6.10384
▁niin	-6.11545
na	-6.12698
lla	-6.14793
▁kuin	-6.21394
)	-6.21899
si	-6.24417
ja	-6.24593
▁myös	-6.28436
e	-6.29633
nsa	-6.39633
!	-6.44497
▁ovat	-6.53601
vat	-6.53978
▁jo	-6.57467
;	-6.62702
on	-6.64146
▁minä	-6.69326
▁tai	-6.70106
ista	-6.70845
▁sekä	-6.71422
▁ollut	-6.73692
?	-6.73804
sti	-6.76886
▁nyt	-6.77572
▁kanssa	-6.78184
o	-6.79039
▁sitä	-6.79278
▁he	-6.79293
▁-	-6.79461
mme	-6.80154
▁ole	-6.8075
ko	-6.81026
issa	-6.84638
'	-6.86151
sa	-6.86479
stä	-6.86558
▁olivat	-6.8669
ssä	-6.89869
tä	-6.91451
▁ne	-6.96471
▁voi	-6.97257
▁jälkeen	-6.98726
▁jonka	-6.99707
et	-6.99724
",	-7.02341
▁vielä	-7.03979
▁tuli	-7.04334
us	-7.07095
▁olisi	-7.07117
maan	-7.07313
nä	-7.07541
▁vain	-7.0843
▁sanoi	-7.08555
y	-7.10526
▁kaikki	-7.10821
llä	-7.11694
inen	-7.12114
u	-7.12541
▁sillä	-7.13212
ten	-7.13916
▁mitä	-7.15015
▁jos	-7.1502
jen	-7.15267
nen	-7.15392
▁jotka	-7.15524
▁sitten	-7.17842
ia	-7.18305
▁sai	-7.18545
k	-7.19069
m	-7.19602
▁vaan	-7.19752
ille	-7.2007
lta	-7.20381
▁en	-7.20753
▁siitä	-7.21159
▁vuoden	-7.23409
▁koko	-7.2571
▁häntä	-7.25894
▁tämä	-7.25969
la	-7.26085
d	-7.26276
nut	-7.2753
▁kuitenkin	-7.28452
▁jossa	-7.2873
illa	-7.30146
ti	-7.31103
tti	-7.31338
ne	-7.32206
h	-7.32561
▁mukaan	-7.32868
▁hänet	-7.33549
än	-7.34047
ma	-7.34162
vät	-7.3435
te	-7.35153
ke	-7.36956
pa	-7.3835
▁suomen	-7.38493
."	-7.38652
sen	-7.39312
▁kaksi	-7.42008
neet	-7.42748
...	-7.44421
nsä	-7.44974
va	-7.46102
ka	-7.46407
l	-7.47118
▁noin	-7.47148
▁a	-7.48262
▁yli	-7.48958
▁ennen	-7.4901
▁me	-7.49088
▁olla	-7.49642
▁toimi	-7.50489
▁te	-7.51102
▁itse	-7.51323
▁tämän	-7.51477
".	-7.52467
▁vastaan	-7.52983
ki	-7.53499
r	-7.53909
▁eli	-7.55018
un	-7.58142
is	-7.582
to	-7.58268
▁saa	-7.59342
▁eikä	-7.59475
▁s	-7.59529
ri	-7.59532
▁minun	-7.59602
de	-7.59626
▁hyvin	-7.61738
ita	-7.61742
kaan	-7.62032
▁muun	-7.62291
iden	-7.62603
kseen	-7.62954
▁alkoi	-7.64352
se	-7.64634
minen	-7.65166
van	-7.65709
▁tuo	-7.66021
▁aina	-7.6665
tta	-7.67151
▁olen	-7.67292
).	-7.67375
istä	-7.6752
▁mies	-7.68522
isi	-7.68985
▁siinä	-7.69349
nne	-7.69402
▁yksi	-7.69432
▁minua	-7.69945
▁mitään	-7.70151
▁heidän	-7.70466
▁vaikka	-7.71224
▁sinä	-7.71533
▁osa	-7.71867
▁aikana	-7.72038
▁pää	-7.72603
▁lisäksi	-7.73056
han	-7.73329
p	-7.73475
sin	-7.73607
no	-7.73751
ku	-7.74384
▁eri	-7.74974
▁pois	-7.7534
g	-7.75407
▁muassa	-7.75524
▁kuten	-7.7566
▁taas	-7.76223
le	-7.76432
tin	-7.76964
▁silloin	-7.77114
▁teki	-7.77176
ihin	-7.77589
iin	-7.77722
▁_	-7.77878
▁”	-7.77914
▁siihen	-7.78806
▁jota	-7.79092
_	-7.80147
c	-7.80844
▁siellä	-7.80934
re	-7.80965
vi	-7.81481
▁de	-7.82307
▁eivät	-7.84073
▁hänelle	-7.8434
▁kuinka	-7.8528
▁vuosina	-7.85973
essa	-7.8705
▁voitti	-7.87392
isen	-7.87883
▁paljon	-7.87946
▁koska	-7.87971
it	-7.88289
▁la	-7.88515
?"	-7.88563
▁myöhemmin	-7.88794
▁samalla	-7.89046
▁vasta	-7.89468
jä	-7.89632
tte	-7.89686
▁aivan	-7.90368
▁–	-7.90755
ve	-7.91187
!"	-7.91679
▁toinen	-7.91909
▁kerran	-7.93341
ro	-7.9382
tu	-7.94223
man	-7.94388
aan	-7.94904
nyt	-7.9538
▁herra	-7.95644
pi	-7.95791
▁mikä	-7.96488
er	-7.96597
ra	-7.97618
da	-7.98257
▁enää	-7.98276
▁tulee	-7.98631
ttu	-7.98634
hän	-7.99169
den	-8.00837
▁kolme	-8.0102
neen	-8.01095
▁ettei	-8.01155
▁the	-8.01347
▁ma	-8.01589
mo	-8.01773
▁i	-8.0222
me	-8.02672
li	-8.02717
▁jolloin	-8.03068
v	-8.03495
f	-8.0378
▁näin	-8.04076
▁niitä	-8.04264
b	-8.04282
ttiin	-8.04619
▁mm	-8.04631
▁ku	-8.04841
▁juuri	-8.04997
▁saanut	-8.05417
mista	-8.05623
▁suuri	-8.05951
▁ha	-8.06061
▁o	-8.06236
issä	-8.06257
misen	-8.06514
▁1	-8.06707
ty	-8.07501
▁no	-8.07784
▁sa	-8.08619
▁»	-8.08684
llinen	-8.0872
uksen	-8.08881
lan	-8.09027
kään	-8.10255
▁ensimmäinen	-8.10324
▁kyllä	-8.10364
mään	-8.10767
luvun	-8.11216
▁olevan	-8.11361
kö	-8.12246
taan	-8.12267
lainen	-8.12639
▁("	-8.1267
ltä	-8.13237
kan	-8.1359
hi	-8.14243
▁usein	-8.1428
▁esimerkiksi	-8.14541
▁hyvä	-8.14775
▁luo	-8.15084
▁maan	-8.15117
mi	-8.15353
▁minulle	-8.1568
ton	-8.1652
”	-8.169
ei	-8.17089
▁tässä	-8.17169
luvulla	-8.17347
▁toisen	-8.17535
ina	-8.17669
▁kautta	-8.18166
▁al	-8.18417
sä	-8.18431
▁maa	-8.18467
▁aika	-8.18814
iksi	-8.19039
▁000	-8.19154
ttä	-8.19427
ha	-8.19491
▁yhtä	-8.19656
iset	-8.19965
▁pian	-8.20242
x	-8.20386
▁vuotta	-8.20734
▁työ	-8.20783
▁niiden	-8.22445
▁siis	-8.22847
),	-8.2309
ksen	-8.23113
pe	-8.23244
isia	-8.23373
▁nimi	-8.23692
▁takaisin	-8.23912
")	-8.24146
▁nousi	-8.24505
▁2	-8.24677
▁kaupungin	-8.24966
▁suomessa	-8.2533
een	-8.25567
pä	-8.25599
▁kertaa	-8.25965
elle	-8.26629
▁heti	-8.271
▁ensimmäisen	-8.27127
▁poika	-8.27588
kka	-8.27635
▁pelasi	-8.27789
do	-8.28549
▁asti	-8.28874
▁yhä	-8.29077
▁vähän	-8.2908
▁pitää	-8.2909
▁re	-8.29165
▁keski	-8.29167
▁vastasi	-8.29232
/	-8.29357
isten	-8.29449
iä	-8.29492
kaa	-8.29859
▁p	-8.30002
▁b	-8.30244
▁m	-8.30255
▁tätä	-8.30464
▁ajan	-8.31051
▁maailman	-8.31143
di	-8.31688
▁koskaan	-8.31719
kki	-8.31787
▁enemmän	-8.31935
▁aikaa	-8.32033
▁missä	-8.32372
z	-8.32377
▁hänellä	-8.32642
▁josta	-8.33208
▁kiinni	-8.3342
▁vuoksi	-8.33518
▁etelä	-8.34237
▁sijaitsee	-8.3454
▁v	-8.34798
▁kuuluu	-8.35078
▁k	-8.35206
▁pohjois	-8.35214
▁3	-8.35229
▁pa	-8.35652
▁muuta	-8.357
▁vuodesta	-8.35854
▁17	-8.36114
ilta	-8.36298
▁pe	-8.36339
ään	-8.36721
▁to	-8.36763
▁siirtyi	-8.36943
pu	-8.37058
▁miten	-8.37065
▁e	-8.37079
po	-8.37097
▁of	-8.37354
jo	-8.37467
▁otti	-8.37481
▁täällä	-8.37973
su	-8.38191
▁uusi	-8.38572
–19	-8.38761
ansa	-8.39117
he	-8.39324
▁kauden	-8.39464
yn	-8.39513
▁joita	-8.3978
▁minut	-8.40176
lo	-8.40279
lu	-8.40437
▁vai	-8.40586
▁piti	-8.40988
es	-8.41014
▁tullut	-8.41242
essä	-8.41692
al	-8.41768
▁alus	-8.41883
ella	-8.42166
at	-8.42167
▁et	-8.42235
mis	-8.42769
▁ala	-8.43107
▁pitkä	-8.43158
▁sota	-8.43189
▁voinut	-8.43403
▁vanha	-8.43539
▁kaudella	-8.43816
▁voidaan	-8.43826
▁välillä	-8.43908
▁mukana	-8.44532
▁suomalainen	-8.44864
▁isä	-8.4534
▁yhdessä	-8.45357
tus	-8.45634
▁meidän	-8.45676
j	-8.4573
▁elokuva	-8.46318
▁neljä	-8.46696
▁ainoastaan	-8.47088
▁kuului	-8.47277
ge	-8.47427
▁tehdä	-8.47532
▁muut	-8.4773
miseen	-8.47903
ho	-8.47915
▁miehen	-8.48484
▁ensi	-8.48617
isiin	-8.48621
▁jäi	-8.48705
▁lu	-8.48959
▁jää	-8.48961
▁4	-8.49173
▁niinkuin	-8.49304
▁saada	-8.49359
▁jälleen	-8.49465
w	-8.4958
▁yhden	-8.49879
ck	-8.49955
▁jolla	-8.50014
▁lopulta	-8.50074
esta	-8.50529
vä	-8.51004
▁g	-8.51035
▁pieni	-8.51102
▁d	-8.51248
ch	-8.51253
▁kysyi	-8.51363
malla	-8.51375
▁so	-8.51565
lin	-8.51603
eksi	-8.51723
os	-8.51725
ry	-8.51758
▁alle	-8.5197
illä	-8.52224
staan	-8.5236
▁ilman	-8.52362
▁kaupunki	-8.5245
sia	-8.52573
ga	-8.5311
▁ka	-8.53181
▁iso	-8.53307
▁mo	-8.53784
▁ri	-8.53836
▁jumala	-8.54037
ssaan	-8.54491
▁le	-8.54584
▁tu	-8.5467
▁aikaan	-8.54734
▁ko	-8.54796
ili	-8.54893
▁pikku	-8.54929
▁li	-8.55103
lleen	-8.55374
▁oma	-8.5559
via	-8.55592
▁olet	-8.55758
rin	-8.55773
▁tästä	-8.55839
maa	-8.56191
▁uuden	-8.56475
ar	-8.56737
▁po	-8.57065
massa	-8.57072
sten	-8.57296
▁c	-8.57325
▁pari	-8.57395
▁ulos	-8.57434
▁käy	-8.57434
▁meni	-8.57603
▁seura	-8.5775
▁kai	-8.57776
▁kunnes	-8.57896
mä	-8.57936
▁*	-8.58751
▁julkaistiin	-8.58851
itä	-8.58928
tar	-8.59278
▁vesi	-8.59491
▁ihan	-8.59618
vo	-8.59658
▁minkä	-8.59665
▁10	-8.59668
▁jatkoi	-8.59858
▁joista	-8.59976
▁vi	-8.59989
so	-8.60145
hin	-8.60308
isesti	-8.60376
▁na	-8.60588
mpi	-8.60729
▁mä	-8.60813
▁kävi	-8.60966
teen	-8.61179
▁anna	-8.61305
▁tuon	-8.61462
▁päästä	-8.61571
▁sisään	-8.61607
▁sinun	-8.61625
▁olin	-8.61706
▁kuitenkaan	-8.61944
go	-8.61973
▁aloitti	-8.62122
▁ar	-8.62431
▁pu	-8.62494
▁tyttö	-8.62576
▁koti	-8.62976
▁sinne	-8.63409
▁15	-8.63422
▁hänestä	-8.63509
je	-8.63598
▁mun	-8.63772
▁kohti	-8.63825
seen	-8.63901
▁oikein	-8.64184
▁äiti	-8.64255
isin	-8.64444
tty	-8.64575
▁muita	-8.64596
▁18	-8.64613
▁käsi	-8.64852
kä	-8.6495
tettiin	-8.64956
uksia	-8.65163
llaan	-8.65206
din	-8.65605
▁kuva	-8.65635
▁suurin	-8.65757
▁ääni	-8.65828
▁koulu	-8.65841
▁yleensä	-8.65922
ter	-8.66187
▁päivä	-8.66246
▁hieman	-8.66342
▁ra	-8.66588
▁puoli	-8.66655
▁kuningas	-8.66763
matta	-8.66877
▁kuoli	-8.66885
▁useita	-8.66913
▁(19	-8.66933
▁ensin	-8.66995
▁saakka	-8.67041
usta	-8.67189
vin	-8.67256
ver	-8.67261
kon	-8.67403
set	-8.67592
▁rouva	-8.67705
▁5	-8.67846
▁teidän	-8.67923
▁()	-8.68079
▁helsingin	-8.68183
ani	-8.68206
▁alueella	-8.6845
▁itä	-8.68451
▁nämä	-8.69021
▁saman	-8.69053
’	-8.69058
▁joiden	-8.69097
ala	-8.69365
▁suo	-8.69433
▁ase	-8.69495
▁oman	-8.69971
▁antoi	-8.69995
ks	-8.70117
▁tähän	-8.70197
men	-8.70443
▁alussa	-8.70465
▁syntyi	-8.70563
ttaa	-8.70605
▁tällä	-8.70624
▁vie	-8.70781
▁f	-8.7093
–	-8.71236
tun	-8.71323
min	-8.71487
▁mi	-8.71599
el	-8.71706
▁peli	-8.71734
▁kohta	-8.71857
▁16	-8.72076
▁läpi	-8.72117
▁si	-8.72161
▁palasi	-8.72208
▁kar	-8.72357
▁johon	-8.72631
kas	-8.72765
▁kansan	-8.73023
▁täytyy	-8.73085
mu	-8.73458
the	-8.73464
▁antaa	-8.74104
▁j	-8.74112
▁alas	-8.74256
▁heitä	-8.74506
▁vuoteen	-8.74564
▁kahden	-8.74857
▁kaiken	-8.75123
▁olleet	-8.75145
▁tehnyt	-8.75407
ce	-8.75412
▁2010	-8.75486
▁...	-8.7551
▁metriä	-8.75668
▁arvo	-8.75959
ju	-8.76231
▁asia	-8.76397
▁varten	-8.76718
▁nuori	-8.76758
▁lähes	-8.76863
vaa	-8.77653
der	-8.77746
▁edelleen	-8.77831
▁ainoa	-8.77837
vän	-8.78216
▁tuntui	-8.78335
▁lo	-8.78353
▁näytti	-8.78403
▁ii	-8.78572
▁esi	-8.78573
ellä	-8.78579
▁tulla	-8.78628
▁ylös	-8.7863
▁1.	-8.78678
ba	-8.78765
▁alla	-8.79184
▁vasten	-8.79195
▁kirkko	-8.79312
▁vaimo	-8.7942
▁uudelleen	-8.79493
▁sivu	-8.79713
▁viisi	-8.7976
▁ehkä	-8.79808
▁päivänä	-8.79903
ru	-8.80033
son	-8.80227
▁edes	-8.80404
▁be	-8.80788
▁12	-8.80838
voi	-8.81218
▁suuren	-8.81238
▁joissa	-8.8138
▁auto	-8.8146
▁maaliskuuta	-8.81467
estä	-8.81481
ven	-8.81911
mistä	-8.81985
▁lähti	-8.82068
▁joten	-8.82128
▁meri	-8.82212
▁h	-8.82281
▁melkein	-8.82767
vien	-8.82794
mia	-8.828
kku	-8.82873
▁väli	-8.83019
▁ihmis	-8.83405
▁huhtikuuta	-8.83467
▁alue	-8.83553
▁20	-8.83804
2	-8.83943
ll	-8.84013
ivat	-8.84065
▁musta	-8.84158
mies	-8.84204
▁new	-8.84267
▁toukokuuta	-8.84468
▁käyttää	-8.84629
▁jopa	-8.84746
▁hu	-8.8495
or	-8.85283
▁usko	-8.85555
▁tammikuuta	-8.85748
ys	-8.85775
▁val	-8.86073
▁kesäkuuta	-8.86126
▁nuo	-8.86173
▁co	-8.86175
▁per	-8.86295
ien	-8.86315
be	-8.86486
▁ro	-8.86648
teli	-8.86667
▁sinua	-8.86775
▁liian	-8.86784
▁syyskuuta	-8.86789
▁helmikuuta	-8.86803
▁ju	-8.86929
▁kirja	-8.8694
▁minulla	-8.87328
▁su	-8.87411
▁san	-8.8753
▁niistä	-8.87612
▁vir	-8.8774
▁2009	-8.8783
▁historia	-8.87891
▁muiden	-8.8805
▁joulukuuta	-8.88236
▁nähdä	-8.88331
kko	-8.88384
tuksen	-8.88403
▁metrin	-8.88425
▁vii	-8.88612
▁joku	-8.88622
ön	-8.88675
▁ke	-8.88724
▁sodan	-8.88745
▁valta	-8.88791
tiin	-8.88806
▁saksan	-8.88851
▁samassa	-8.88922
▁venäjän	-8.88934
mon	-8.88959
▁bo	-8.89059
▁lokakuuta	-8.89193
▁u	-8.8924
▁nimellä	-8.89317
▁ki	-8.89596
laisen	-8.89616
sto	-8.8963
▁perin	-8.89732
▁levy	-8.89758
esi	-8.89763
▁sm	-8.89786
▁vara	-8.89908
▁heinäkuuta	-8.90096
▁kokonaan	-8.90163
▁moni	-8.90187
▁metsä	-8.9027
▁ilma	-8.90373
▁2011	-8.90399
▁2007	-8.90409
ca	-8.90539
▁ainakin	-8.90707
▁pääsi	-8.90986
▁loppu	-8.91215
▁kuusi	-8.91321
▁päälle	-8.91488
hu	-8.91565
▁in	-8.91861
▁yhtyeen	-8.91988
ltaan	-8.9207
▁puu	-8.92105
▁avulla	-8.92126
▁2008	-8.92187
ö	-8.92206
▁hetken	-8.92301
▁hi	-8.92307
▁kor	-8.92346
▁molemmat	-8.92471
mmin	-8.92509
ker	-8.92651
▁länsi	-8.92655
1	-8.92674
▁käytetään	-8.92674
▁elokuuta	-8.92968
ly	-8.93093
▁ottaa	-8.93342
▁di	-8.93421
hd	-8.9344
▁tänne	-8.93445
ensa	-8.93446
▁voisi	-8.93457
kseni	-8.93462
­	-8.93469
▁lähtien	-8.93594
▁marraskuuta	-8.93599
ss	-8.936
▁w	-8.93654
tö	-8.93673
▁6	-8.94023
▁kivi	-8.94152
kilpailuissa	-8.94182
▁epä	-8.94256
▁her	-8.94475
▁tule	-8.94508
▁2012	-8.94671
▁yhtye	-8.94783
▁ca	-8.94806
▁toivo	-8.94819
osa	-8.94921
▁pitkin	-8.94952
▁jotain	-8.94965
▁kulta	-8.95027
▁joutui	-8.9513
▁määrä	-8.95136
▁nainen	-8.95382
▁juo	-8.9578
▁mieli	-8.95807
▁matka	-8.95981
essaan	-8.96007
bo	-8.96036
▁väri	-8.96082
▁albumi	-8.96153
joen	-8.96186
6	-8.96199
oja	-8.96222
▁sijoittui	-8.96255
▁mar	-8.96315
llista	-8.96386
vu	-8.96461
▁päivän	-8.9649
▁jäsen	-8.96579
▁lähellä	-8.96609
▁sä	-8.96652
▁yksin	-8.96711
▁päin	-8.96842
▁kirkon	-8.96881
▁nopeasti	-8.96976
kun	-8.97229
▁ilo	-8.97281
▁y	-8.9729
▁pinta	-8.97342
▁pi	-8.97393
ski	-8.97605
▁soi	-8.97666
▁muu	-8.9781
▁vei	-8.979
▁7	-8.97967
nnut	-8.98093
minä	-8.98133
laiset	-8.98325
▁alueen	-8.98342
▁tietää	-8.98525
utta	-8.98551
▁tunsin	-8.98574
▁euroopan	-8.98717
▁ranskan	-8.98823
▁julkaisi	-8.98856
▁taistelu	-8.9887
▁ruotsin	-8.98922
▁myöskin	-8.98935
▁r	-8.98975
▁ver	-8.99158
iseen	-8.994
st	-8.99609
▁istui	-8.99781
▁kilometriä	-8.99903
▁etu	-8.99998
▁2014	-9.00069
▁ry	-9.00166
▁2006	-9.00242
▁sisä	-9.00301
▁ympäri	-9.00392
▁syö	-9.0066
▁siten	-9.00735
▁var	-9.00798
ran	-9.00873
▁8	-9.01009
um	-9.01053
▁alkaa	-9.01111
▁har	-9.01344
gi	-9.01366
▁yhdysvaltain	-9.01451
taa	-9.01593
iseksi	-9.01599
▁valittiin	-9.01755
lä	-9.01811
misesta	-9.01848
co	-9.01881
▁yhteen	-9.02026
▁elämän	-9.02067
▁as	-9.02075
laisten	-9.0208
▁asu	-9.02127
ky	-9.02275
du	-9.0228
▁va	-9.02326
▁ru	-9.02352
▁tavalla	-9.02417
per	-9.02455
▁l	-9.02657
ile	-9.0274
▁joskus	-9.02755
▁puna	-9.02757
▁jotakin	-9.02778
▁osaa	-9.02817
▁näki	-9.03118
▁siksi	-9.03181
järven	-9.03231
niin	-9.03531
▁toimii	-9.03617
▁sanoa	-9.0384
▁henkilö	-9.03972
▁hä	-9.04005
▁kylä	-9.04024
esti	-9.04319
▁14	-9.04345
▁tuota	-9.04556
▁sama	-9.04583
▁monta	-9.04642
▁jumalan	-9.04727
▁joukko	-9.0483
tteli	-9.05061
th	-9.05082
▁erityisesti	-9.05096
▁ho	-9.05119
▁formula	-9.05165
bi	-9.05227
▁aluksi	-9.0527
▁tarkoittaa	-9.05278
▁tunsi	-9.05481
▁seuraavana	-9.05505
▁ni	-9.05566
tto	-9.05771
▁valmistui	-9.05797
▁pro	-9.05882
"-	-9.05899
▁2013	-9.05927
kunta	-9.05983
▁yö	-9.06033
tään	-9.06069
▁itsensä	-9.06099
▁kukaan	-9.06159
berg	-9.06223
▁kauan	-9.06372
▁ura	-9.06515
▁oleva	-9.06518
yhdysvaltalainen	-9.0652
▁2015	-9.06622
▁jotta	-9.0692
▁osallistui	-9.07005
▁lie	-9.07044
▁valtio	-9.07075
▁maahan	-9.07176
ng	-9.07197
▁loi	-9.07229
oi	-9.0733
▁seisoi	-9.07628
▁takia	-9.07918
▁oppi	-9.08277
don	-9.08297
▁kello	-9.08539
▁ken	-9.08545
▁suur	-9.08555
▁alku	-9.08579
▁julkaistu	-9.08645
toja	-9.08863
▁par	-9.08957
3	-9.0905
▁or	-9.09196
▁alkaen	-9.09504
llisesti	-9.09555
▁nähnyt	-9.09787
▁puhu	-9.09843
▁and	-9.09854
▁suoraan	-9.09894
▁em	-9.10134
ppi	-9.10228
dan	-9.10461
ineen	-9.10497
tettu	-9.10509
▁joukkue	-9.10517
▁miehet	-9.10575
▁taka	-9.10639
▁luku	-9.10671
▁korkea	-9.1068
aika	-9.10727
▁kesä	-9.10786
▁keskus	-9.10794
▁edessä	-9.10835
▁oi	-9.10875
▁kappale	-9.10938
pää	-9.10951
▁	-9.11051
▁laji	-9.11113
▁kas	-9.11258
▁saavutti	-9.11317
▁kieli	-9.11323
▁saattoi	-9.11681
▁kulttuuri	-9.11984
▁runo	-9.12061
▁mennä	-9.12071
▁john	-9.12132
▁huolimatta	-9.1218
▁lisää	-9.12357
▁raja	-9.1246
▁yhteensä	-9.12635
hti	-9.1269
▁vapaa	-9.12722
▁ti	-9.12755
4	-9.12801
▁ulko	-9.12883
▁kauppa	-9.12891
▁tie	-9.12963
ing	-9.1311
▁monet	-9.13177
▁pienen	-9.13235
▁au	-9.13413
▁viime	-9.13484
▁el	-9.1354
▁tur	-9.1359
▁sieltä	-9.13609
▁halu	-9.13658
dy	-9.13751
masta	-9.13772
▁kon	-9.1381
▁tehty	-9.13813
▁van	-9.13855
mus	-9.13924
▁perustettiin	-9.13928
▁hiljaa	-9.13941
ska	-9.13964
▁tunnetaan	-9.14014
mer	-9.14068
▁2016	-9.14184
▁toista	-9.14331
ed	-9.14366
toista	-9.14528
▁lapsi	-9.14587
ttava	-9.14723
▁miestä	-9.14858
▁kuuluva	-9.1488
▁sinulle	-9.14902
▁mistä	-9.15341
ttua	-9.15355
▁kertoi	-9.15461
▁13	-9.15502
▁pala	-9.15514
▁da	-9.15763
järvi	-9.15842
▁jonkun	-9.15872
▁11	-9.15903
▁elä	-9.15961
▁tulisi	-9.15979
▁nykyään	-9.16046
kää	-9.1611
▁tieto	-9.16462
llisen	-9.16544
▁teitä	-9.16576
▁sähkö	-9.16601
▁ve	-9.16651
▁miksi	-9.16706
▁olette	-9.16838
mättä	-9.17028
▁toi	-9.17287
▁laulu	-9.17407
é	-9.17476
▁sano	-9.17635
il	-9.17643
▁kansa	-9.17731
peli	-9.17769
▁paras	-9.17773
▁9	-9.1789
▁kymmenen	-9.17949
ren	-9.1799
▁elämä	-9.18049
▁katso	-9.18059
kirja	-9.1809
▁kaikkien	-9.18117
▁myötä	-9.18157
▁naisen	-9.18276
▁katsoi	-9.18306
▁päivää	-9.18377
▁astui	-9.1849
▁kanta	-9.18546
▁miljoonaa	-9.18651
▁man	-9.18675
▁kätensä	-9.18754
▁toiseksi	-9.18864
▁100	-9.18865
▁muista	-9.18917
▁ai	-9.1893
▁kotiin	-9.18998
▁du	-9.19135
▁30	-9.19209
▁teille	-9.1921
▁muutamia	-9.19239
8	-9.19299
▁aiemmin	-9.19426
▁alun	-9.19436
▁sana	-9.19575
▁oy	-9.19599
gen	-9.19704
▁saivat	-9.1974
nu	-9.19897
▁kii	-9.20086
▁2005	-9.20101
▁mene	-9.20253
▁päässä	-9.20354
▁ystävä	-9.20404
▁2.	-9.20797
▁kohtaan	-9.20802
▁kuninkaan	-9.20812
▁puhe	-9.20842
mar	-9.2108
▁näyttelijä	-9.21122
▁täytyi	-9.21189
▁olo	-9.21313
▁ah	-9.21375
ut	-9.2139
▁hiukan	-9.21705
▁elokuvan	-9.21842
ste	-9.21857
ur	-9.21879
▁yleis	-9.21891
▁tuolla	-9.22022
wa	-9.22029
laisia	-9.22042
▁mut	-9.22109
ger	-9.22146
ssi	-9.22292
uus	-9.22336
▁silmät	-9.22444
jan	-9.22545
▁muka	-9.22727
▁toiminta	-9.22746
▁musiikki	-9.2275
▁isänsä	-9.22807
lli	-9.22849
ppa	-9.22956
▁voima	-9.22995
▁vanhan	-9.23125
▁yhteis	-9.23125
len	-9.23177
▁kirjoitti	-9.2318
▁samana	-9.23216
▁t	-9.23367
assa	-9.23453
▁sitte	-9.2363
oksen	-9.23776
tui	-9.23904
▁sille	-9.23906
ensä	-9.23963
miseksi	-9.24428
kar	-9.24561
00	-9.24661
▁kuka	-9.24786
7	-9.24816
▁toiminut	-9.24816
hen	-9.24935
▁%	-9.25077
▁muisto	-9.25145
▁fa	-9.25208
▁todella	-9.25238
▁lähi	-9.25273
▁vähä	-9.25419
▁50	-9.25499
▁perus	-9.25558
▁2004	-9.25582
ske	-9.25679
▁näyttää	-9.25759
5	-9.25788
▁go	-9.25798
▁samoin	-9.2583
▁muuten	-9.25837
▁do	-9.25873
▁kahdeksan	-9.25948
▁tiedä	-9.25965
fi	-9.25982
ukset	-9.2601
0	-9.2601
▁huono	-9.26065
tuu	-9.2624
▁ab	-9.26375
▁näiden	-9.26472
▁tutki	-9.26531
▁eräs	-9.26613
ken	-9.26645
llis	-9.26649
▁kunnan	-9.26685
my	-9.26709
mien	-9.26723
▁pen	-9.26767
▁järven	-9.26791
▁os	-9.26802
▁tanssi	-9.26886
tie	-9.26947
▁bar	-9.27004
▁seurasi	-9.27047
▁ba	-9.27157
▁miesten	-9.27159
▁tapahtui	-9.27163
▁toisella	-9.27202
mutta	-9.27311
miin	-9.2741
tys	-9.2742
▁erittäin	-9.27435
talo	-9.27466
▁paino	-9.27475
▁luona	-9.27526
▁henki	-9.27528
tetaan	-9.27568
▁perhe	-9.27581
”.	-9.27712
▁ali	-9.27724
▁vuosi	-9.27726
▁sijaitseva	-9.2775
eli	-9.27761
▁ikäänkuin	-9.27859
ise	-9.27886
▁omaa	-9.27934
▁yhdysvalloissa	-9.27949
▁kuu	-9.27969
kset	-9.28027
▁istu	-9.28039
ura	-9.28252
▁isäntä	-9.28295
▁eaa	-9.28309
▁mur	-9.28358
eni	-9.28379
š	-9.28421
.»	-9.2846
▁järvi	-9.28494
▁työn	-9.28538
▁sala	-9.28541
▁seitsemän	-9.28682
▁kesken	-9.28688
▁pyhä	-9.28893
lais	-9.28944
▁entinen	-9.28944
▁itseään	-9.2896
▁hieno	-9.28974
sh	-9.2916
▁tähden	-9.2924
▁ihmiset	-9.29339
▁sijaan	-9.29407
ttää	-9.29457
▁hitaasti	-9.29537
▁sun	-9.29549
ber	-9.29567
▁laski	-9.29686
▁huusi	-9.29711
▁saattaa	-9.29761
isti	-9.29787
▁täysin	-9.29858
ji	-9.29862
▁oven	-9.29956
▁totta	-9.29972
eri	-9.30003
▁eikö	-9.30067
ot	-9.30075
▁lii	-9.30081
▁[	-9.30146
▁joukkueen	-9.30209
▁luonnon	-9.30235
tel	-9.30411
▁ajoi	-9.3044
▁nais	-9.30442
tut	-9.30443
▁talo	-9.30446
▁kaunis	-9.30468
▁sarjan	-9.30492
▁muutti	-9.306
▁nykyisin	-9.30649
var	-9.30715
▁vihdoin	-9.3077
▁tietä	-9.30925
▁tavoin	-9.30944
▁voivat	-9.30958
val	-9.30966
▁valmis	-9.31106
▁erikois	-9.31179
alue	-9.31263
▁2017	-9.31305
▁yksityis	-9.31341
▁syy	-9.31342
siin	-9.31364
▁mahdollista	-9.31393
▁yhteydessä	-9.31436
isiä	-9.3146
▁kolmas	-9.31492
▁minusta	-9.31734
kunnan	-9.31755
ajan	-9.31766
▁ylä	-9.31805
änsä	-9.31885
▁hyvää	-9.3193
pin	-9.31932
▁tekee	-9.31945
▁kunnia	-9.31962
▁tosin	-9.32093
▁joilla	-9.32119
▁koe	-9.3218
▁tuskin	-9.32184
▁meitä	-9.32253
▁kaa	-9.32263
tusta	-9.32277
sivat	-9.32319
▁oikea	-9.32337
▁rauta	-9.32383
▁sanoin	-9.32475
▁pysty	-9.32533
▁'	-9.32546
br	-9.32615
arvo	-9.32662
▁tunne	-9.32701
▁olemme	-9.32717
▁kovin	-9.32751
▁jalo	-9.32774
ps	-9.32783
mat	-9.3285
▁ennenkuin	-9.32883
▁turun	-9.32889
▁katseli	-9.32986
▁kansallis	-9.33015
▁joko	-9.33039
▁päällä	-9.33257
▁huomasi	-9.33262
▁häneen	-9.33275
▁hy	-9.33302
▁rakennus	-9.33346
▁työskenteli	-9.33347
▁radio	-9.33411
▁lasten	-9.33507
kke	-9.33518
▁ero	-9.33617
▁tunnettu	-9.33638
▁nai	-9.33866
▁elää	-9.34213
▁milloin	-9.34217
▁heidät	-9.34413
▁talon	-9.34461
▁ilmoitti	-9.34479
auto	-9.34507
▁kur	-9.34604
▁ky	-9.34645
▁valko	-9.34816
▁sanoo	-9.34861
▁esiin	-9.34887
▁valo	-9.34896
▁single	-9.34936
▁samaan	-9.35007
▁kuulu	-9.35095
▁lento	-9.3524
aali	-9.35266
▁suku	-9.35349
ster	-9.35517
▁asian	-9.35521
uutta	-9.35568
ville	-9.3561
▁äkkiä	-9.35669
▁heille	-9.35851
valta	-9.35881
ron	-9.35926
▁puolestaan	-9.35954
neiden	-9.36128
vuotiaana	-9.36216
viä	-9.36402
ci	-9.36414
eseen	-9.36498
▁ihmisen	-9.36645
gin	-9.36668
oli	-9.36812
wi	-9.36815
▁lisä	-9.36853
▁wa	-9.36867
▁vallan	-9.36897
levy	-9.36949
▁varsin	-9.36986
▁silmä	-9.37052
▁kertoo	-9.37127
kat	-9.37138
gan	-9.37144
▁itselleen	-9.37162
mässä	-9.3732
▁päätti	-9.37357
▁väliin	-9.37447
elta	-9.37497
▁muutaman	-9.37599
▁lähe	-9.37622
sk	-9.37648
▁meille	-9.37712
▁edusti	-9.3784
lleni	-9.37952
▁uutta	-9.37954
▁sotilas	-9.37962
▁aja	-9.38108
kuu	-9.38224
_.	-9.38266
▁lehti	-9.38398
▁takana	-9.38423
▁uransa	-9.38455
▁naisten	-9.38466
▁valtion	-9.38483
▁oikeus	-9.38583
▁fi	-9.38655
yhtiö	-9.38661
jien	-9.38732
▁erään	-9.38742
▁puolue	-9.38815
▁käyttö	-9.38821
▁näitä	-9.38827
▁maata	-9.38857
▁kova	-9.38921
asta	-9.39146
▁ilmestyi	-9.39186
▁pan	-9.39301
▁2000	-9.3937
=	-9.39497
mällä	-9.39503
▁selvästi	-9.39684
▁km	-9.39691
inä	-9.39744
▁varsinkin	-9.39762
]	-9.39821
uksesta	-9.39854
▁paitsi	-9.39927
▁my	-9.39945
nti	-9.40002
▁hel	-9.4004
▁tor	-9.4007
▁kuluttua	-9.40085
mpaa	-9.40145
nee	-9.40195
▁käyttöön	-9.40195
kau	-9.40227
▁kirjailija	-9.40292
▁keisari	-9.40432
▁lähteä	-9.40459
▁seuran	-9.40544
▁sarja	-9.40547
▁ihminen	-9.40602
tila	-9.4064
▁rock	-9.40716
▁500	-9.40923
puoli	-9.41063
▁kasvoi	-9.41074
▁kan	-9.41076
▁puolen	-9.41077
mp	-9.41088
▁emme	-9.41168
määrä	-9.41233
▁kala	-9.41416
▁car	-9.41545
▁kulki	-9.4155
tee	-9.41604
ian	-9.41659
▁suu	-9.41659
▁talous	-9.41672
▁pitkään	-9.41746
▁aamu	-9.41834
▁ga	-9.41838
▁virka	-9.41887
▁enkä	-9.41919
▁tasa	-9.41922
▁sain	-9.41922
▁vastaa	-9.41931
▁etsi	-9.4197
uuden	-9.42129
▁nu	-9.42252
▁johti	-9.42257
▁esiintyi	-9.42314
▁ihmisten	-9.42495
▁lau	-9.4254
▁veden	-9.42578
▁kaupungissa	-9.42588
stään	-9.42702
▁kolmen	-9.42727
▁liittyi	-9.42733
▁hal	-9.42758
▁kuiva	-9.42768
▁lausui	-9.42849
▁alkoivat	-9.42867
▁kunta	-9.43074
▁tehtiin	-9.43125
▁paksu	-9.43148
▁bu	-9.43195
▁opiskeli	-9.43236
▁maria	-9.43262
met	-9.43312
▁ilta	-9.43331
▁ny	-9.43407
▁puolella	-9.43474
▁vuodelta	-9.43501
▁kallio	-9.43583
▁paremmin	-9.43605
sy	-9.43625
▁kal	-9.43652
▁tutkimus	-9.43739
▁väl	-9.43773
päivä	-9.43858
▁3.	-9.43975
▁matti	-9.43991
▁kärsi	-9.44447
▁eteenpäin	-9.44461
▁saapui	-9.44474
á	-9.44521
▁pohja	-9.44648
lia	-9.44655
▁200	-9.4467
▁osan	-9.44997
▁2003	-9.45001
▁tila	-9.45013
▁sir	-9.45055
▁tar	-9.45182
▁gi	-9.45219
▁nimen	-9.45304
▁verran	-9.45418
▁urheilu	-9.45456
poika	-9.4546
▁melko	-9.45489
▁äänellä	-9.45508
▁pitäisi	-9.45541
▁ett	-9.45605
▁laiva	-9.45637
▁juhla	-9.45652
▁katse	-9.45702
pan	-9.45706
▁ilme	-9.45716
sarjan	-9.45869
mm	-9.45881
▁eteen	-9.45966
▁neiti	-9.46087
valla	-9.4623
imme	-9.46416
kkaa	-9.46636
▁käytetty	-9.46654
▁st	-9.4668
▁kenraali	-9.46934
▁pojan	-9.46959
▁rii	-9.47051
▁esiintyy	-9.47083
iltä	-9.47091
▁takaa	-9.47119
mitä	-9.47157
▁kausi	-9.47202
▁onko	-9.47205
▁lopulla	-9.47237
▁turva	-9.47373
tor	-9.47444
ojen	-9.47729
ppu	-9.47735
▁sielu	-9.47843
id	-9.47881
ltään	-9.47887
▁asema	-9.4798
▁vaikea	-9.48069
▁mikään	-9.48083
▁seuraa	-9.48137
▁suurta	-9.48163
▁kä	-9.48234
▁huudahti	-9.48248
▁malli	-9.48308
▁tarvitse	-9.48345
we	-9.48346
▁aurinko	-9.48384
▁kapteeni	-9.48404
▁perusti	-9.48413
▁laske	-9.48477
▁ly	-9.48484
ner	-9.48493
▁tulo	-9.48517
▁viha	-9.48539
▁meillä	-9.48542
9	-9.48671
▁vaimoni	-9.48896
▁ottelua	-9.49047
▁sy	-9.49093
▁kasvaa	-9.49157
vai	-9.49163
▁tällöin	-9.49201
▁yliopiston	-9.49231
▁x	-9.49313
▁piiri	-9.49343
koon	-9.49344
▁tapa	-9.49604
tojen	-9.49685
▁keskellä	-9.49741
▁luu	-9.49839
▁25	-9.49854
▁kuuluvat	-9.49859
▁2002	-9.49902
▁saisi	-9.49958
seura	-9.49985
▁ottelussa	-9.50038
land	-9.50058
▁tiesi	-9.50101
▁pidetään	-9.5017
▁maassa	-9.50176
▁viimeinen	-9.50179
▁kappaleen	-9.50195
▁tarjo	-9.50215
▁nimensä	-9.50268
ee	-9.50294
▁kreivi	-9.5032
▁tärkeä	-9.50325
fa	-9.50467
▁jonkin	-9.50553
▁tytön	-9.50616
▁koo	-9.50621
▁ohi	-9.50719
▁tien	-9.50741
▁bi	-9.50771
▁40	-9.50797
▁professori	-9.51022
tua	-9.51037
ukseen	-9.51072
▁pidä	-9.5122
▁versio	-9.51241
▁albumin	-9.51254
tur	-9.51263
▁liike	-9.51275
utui	-9.51282
▁siirrettiin	-9.51314
▁kari	-9.51332
▁raha	-9.51367
▁sydän	-9.51423
▁puolesta	-9.51439
▁uusia	-9.51452
puu	-9.51456
▁ajatteli	-9.51466
▁pol	-9.51587
»,	-9.51596
▁saari	-9.51609
▁kääntyi	-9.51783
▁sittemmin	-9.5191
▁toiset	-9.51917
▁jätti	-9.51998
▁perustettu	-9.52037
▁sisältää	-9.52048
▁laulaja	-9.5205
▁asui	-9.52125
▁johtaja	-9.52152
▁kesällä	-9.52191
▁hei	-9.52241
▁anteeksi	-9.52262
▁niissä	-9.52305
▁pani	-9.52317
▁rupesi	-9.5233
▁paha	-9.52442
▁tulivat	-9.52517
▁olisivat	-9.52527
ston	-9.52529
▁helsinki	-9.52572
▁prosenttia	-9.52597
▁pitänyt	-9.5261
▁työtä	-9.52638
▁mennessä	-9.52697
▁koske	-9.52699
▁kone	-9.52765
▁pitkän	-9.52768
▁mal	-9.52771
▁lähinnä	-9.52829
▁yliopisto	-9.52856
chi	-9.52891
▁loppuun	-9.53013
▁veti	-9.53024
jat	-9.53096
tuksia	-9.53199
▁huvi	-9.53331
▁aloin	-9.5334
▁yhtenä	-9.53477
▁liitto	-9.53486
za	-9.53523
▁yhtiö	-9.53549
ley	-9.53591
▁hallitus	-9.53665
▁puhui	-9.53668
▁neuvo	-9.53685
▁sin	-9.53737
kkaan	-9.53801
mmaksi	-9.53855
▁mu	-9.53909
▁häneltä	-9.53934
▁olemassa	-9.53936
itten	-9.53949
▁pelaaja	-9.53977
▁kokonais	-9.53978
isena	-9.54017
alla	-9.54039
as	-9.54082
▁we	-9.5409
joki	-9.54155
▁vaati	-9.54225
▁rakennettu	-9.54283
ell	-9.54288
▁kilpailu	-9.5433
▁ben	-9.54369
tää	-9.54441
▁lopussa	-9.54509
▁luettelo	-9.54521
▁kuuli	-9.5454
▁hyvän	-9.54558
työ	-9.54602
▁1994	-9.54602
▁ihmisiä	-9.54653
▁jatko	-9.5484
▁nosti	-9.54847
ikka	-9.5488
tit	-9.54929
▁tuki	-9.54948
utti	-9.55076
isella	-9.55134
▁kaikkea	-9.55139
▁presidentti	-9.55258
▁korva	-9.55267
tele	-9.55324
llään	-9.55475
istu	-9.55478
▁hallituksen	-9.55582
▁er	-9.55683
▁vuo	-9.55763
▁kau	-9.55798
ah	-9.55821
erin	-9.55836
▁kuoleman	-9.55848
▁sil	-9.55881
▁pyysi	-9.55904
laista	-9.55935
olo	-9.56018
▁perä	-9.56031
teet	-9.56045
▁vil	-9.56047
laji	-9.56067
▁poliisi	-9.56255
▁tammikuussa	-9.56284
koulu	-9.56302
▁4.	-9.56354
▁for	-9.56468
▁näistä	-9.56491
▁kielen	-9.56547
▁muisti	-9.56583
▁alusta	-9.56645
▁kuulla	-9.56701
▁tahdo	-9.5673
▁mor	-9.56739
▁von	-9.56795
ts	-9.56836
▁saat	-9.56879
19	-9.56928
▁ukko	-9.56963
gon	-9.57088
maton	-9.57163
▁leveä	-9.5718
eltä	-9.57255
▁ryhmä	-9.57258
▁huo	-9.57263
▁piste	-9.57269
▁eu	-9.57468
lei	-9.57482
▁ruoka	-9.5754
▁julkaisu	-9.57664
▁ammatti	-9.57697
▁mihin	-9.57741
itti	-9.57758
▁numero	-9.57817
▁rakas	-9.57885
▁varma	-9.57955
ff	-9.57957
essään	-9.57961
▁lai	-9.57989
▁para	-9.5803
hä	-9.58051
tunut	-9.58115
▁kol	-9.58118
▁tavallisesti	-9.58189
alle	-9.58204
▁cm	-9.58213
▁2001	-9.58242
▁kalu	-9.58316
▁sää	-9.58348
ttanut	-9.58426
tien	-9.58443
▁vuoro	-9.58569
▁nyky	-9.58668
▁sel	-9.58686
▁armeija	-9.58698
▁syntynyt	-9.5872
▁kilometrin	-9.58722
▁ranta	-9.58729
kse	-9.58742
ttävä	-9.58769
▁käynyt	-9.58815
har	-9.58839
palvelu	-9.58872
▁paikalla	-9.58899
▁sovi	-9.58906
▁taide	-9.58981
▁tri	-9.58982
▁1918	-9.58993
llisia	-9.59032
▁yritys	-9.59036
▁varjo	-9.59054
▁laivaston	-9.59057
▁toiseen	-9.5907
tetty	-9.59129
▁tee	-9.59184
ryhmä	-9.59214
▁pelaa	-9.59279
▁muoto	-9.59356
▁ensimmäiset	-9.59365
▁maailmansodan	-9.59369
▁samaa	-9.59379
▁silmänsä	-9.59445
▁tohtori	-9.59452
tellen	-9.59501
▁heistä	-9.59501
▁nhl	-9.59506
▁kaikkia	-9.5954
▁ympärillä	-9.59677
ivät	-9.59729
les	-9.59767
▁tahtonut	-9.59774
ria	-9.59804
▁tuolloin	-9.59866
▁mestaruuden	-9.59914
▁kirjan	-9.59986
kor	-9.60047
▁linna	-9.60063
▁sosiaali	-9.60107
▁linja	-9.60108
▁tra	-9.60153
nnan	-9.60184
▁meren	-9.60187
kauden	-9.60278
▁kultaa	-9.60289
▁sisällä	-9.60295
▁pur	-9.60325
lehti	-9.60436
▁suru	-9.60509
▁fe	-9.60591
▁päättyi	-9.60704
▁0	-9.60764
▁am	-9.60809
issaan	-9.60813
▁tuotanto	-9.60813
pal	-9.60836
▁kylän	-9.60908
20	-9.60939
▁viimein	-9.60952
▁2018	-9.6097
ikko	-9.60986
▁tarina	-9.60988
ilu	-9.61002
▁lapset	-9.61002
bu	-9.611
▁virkkoi	-9.61131
▁ker	-9.61131
▁talvi	-9.61174
▁käski	-9.61193
▁sata	-9.61195
▁lähtee	-9.61215
kisoissa	-9.61267
▁rei	-9.61278
keskus	-9.61293
▁sanat	-9.6135
▁yliopistossa	-9.61395
▁laki	-9.61396
sarjassa	-9.61522
▁aa	-9.61522
▁robert	-9.61523
▁pyöri	-9.61662
ek	-9.61671
uksista	-9.61863
▁1991	-9.619
ttamaan	-9.61918
▁laaja	-9.61945
tia	-9.6196
▁englannin	-9.62018
▁ge	-9.62076
▁salli	-9.62134
llisten	-9.62166
▁con	-9.62254
▁sanonut	-9.62272
▁kysy	-9.6228
paikka	-9.62283
▁ensimmäistä	-9.62356
▁1990	-9.62367
▁suoja	-9.62409
ov	-9.62458
isessa	-9.62487
▁tahtoi	-9.625
▁toisessa	-9.6252
ny	-9.62579
▁heikko	-9.627
▁antanut	-9.6285
▁rakennettiin	-9.62888
▁tahdon	-9.62896
▁tänä	-9.62908
▁kerta	-9.62934
▁1999	-9.63005
▁aihe	-9.63045
hon	-9.63049
▁tarttui	-9.63055
tori	-9.63215
yhtye	-9.63223
alueen	-9.63244
uden	-9.6328
▁tehtävä	-9.63477
–18	-9.63478
▁kuule	-9.63552
▁jokainen	-9.6356
voima	-9.63566
elokuva	-9.63594
▁peri	-9.63663
▁lyhyt	-9.63727
▁puhua	-9.63984
▁terve	-9.64011
muoto	-9.64017
isuus	-9.64038
▁sch	-9.64073
▁cor	-9.64077
miehen	-9.64129
▁1993	-9.64171
10	-9.64194
tyy	-9.64263
▁varmaan	-9.64279
hms	-9.64317
▁uudestaan	-9.64344
▁varhais	-9.64364
▁merkittävä	-9.64425
▁heillä	-9.64556
▁ta	-9.64572
▁(18	-9.64796
▁kylmä	-9.64802
hy	-9.64825
▁käydä	-9.64916
län	-9.64939
▁saaren	-9.6496
▁luki	-9.64982
ser	-9.65017
▁kuullut	-9.65027
▁tapahtunut	-9.6512
▁vuosien	-9.6517
ossa	-9.65268
ü	-9.65279
í	-9.65282
ir	-9.6536
▁min	-9.65374
▁ritari	-9.65389
▁asukasta	-9.65479
siä	-9.6549
▁kaudeksi	-9.65491
▁kieltä	-9.65509
▁teatteri	-9.65516
▁kappaletta	-9.65576
▁isän	-9.65618
ssään	-9.65626
▁toisin	-9.65705
mäki	-9.65786
▁tahi	-9.65831
▁käytössä	-9.65881
▁antti	-9.65886
▁ihme	-9.65897
▁yle	-9.65898
▁tapaa	-9.65933
mpia	-9.66032
▁uni	-9.66084
▁aikaisemmin	-9.66092
▁jalkapallo	-9.66115
..."	-9.66117
▁tulen	-9.66154
käy	-9.6618
joukkue	-9.66205
vasta	-9.66413
▁kyl	-9.66486
▁sinut	-9.66543
sesti	-9.66618
▁mennyt	-9.66652
▁kuvaa	-9.66672
▁tuossa	-9.66685
▁keväällä	-9.66763
ide	-9.66898
▁paikka	-9.6698
saari	-9.66999
▁fo	-9.67021
▁kaula	-9.67055
12	-9.67148
▁pako	-9.67281
▁halusi	-9.6729
▁armeijan	-9.67429
del	-9.67476
utu	-9.67507
▁11.	-9.67531
▁hauta	-9.67535
▁lä	-9.67629
▁lauri	-9.67648
itse	-9.67651
▁raa	-9.67653
▁pidettiin	-9.67713
▁keksi	-9.67778
isesta	-9.6778
tra	-9.67794
▁suomi	-9.67801
zi	-9.67822
▁fu	-9.67885
oh	-9.67892
▁400	-9.67999
▁6.	-9.68006
im	-9.68021
▁joki	-9.68054
jana	-9.68153
alan	-9.68161
▁ikä	-9.68195
nnin	-9.68287
stu	-9.68292
▁olisin	-9.68293
▁elokuvassa	-9.68341
▁7.	-9.68372
reita	-9.68462
▁ette	-9.68546
▁käytettiin	-9.68583
▁täynnä	-9.68599
tro	-9.68611
▁olleen	-9.68635
kieli	-9.68723
▁seurauksena	-9.68742
liiton	-9.68767
luku	-9.68772
▁ope	-9.68785
▁vatsa	-9.6879
▁kei	-9.68797
▁opettaja	-9.68826
▁naapuri	-9.68873
sarja	-9.68874
▁yhdeksän	-9.68884
▁5.	-9.6895
kkä	-9.68993
▁ensimmäisenä	-9.69123
▁päähän	-9.69166
▁tunnus	-9.6917
▁1997	-9.6923
asi	-9.69271
▁tietysti	-9.6928
asema	-9.69435
ida	-9.69479
▁pallo	-9.69547
kai	-9.69559
▁seiso	-9.69699
emme	-9.69718
udesta	-9.69874
▁helposti	-9.69923
insa	-9.69942
▁super	-9.69979
▁päässyt	-9.6998
miel	-9.70015
▁onnistui	-9.70087
▁käytti	-9.70123
vasti	-9.70198
▁auki	-9.70247
▁joukossa	-9.70268
▁hallinto	-9.70277
▁paina	-9.70358
▁naiset	-9.70373
oma	-9.70512
▁pal	-9.70551
▁kuollut	-9.70608
▁mari	-9.70621
▁edustaa	-9.70644
▁1980-	-9.70688
pen	-9.70797
ham	-9.70804
ppe	-9.70816
ase	-9.70873
▁pituus	-9.70912
▁je	-9.70993
▁vuori	-9.71005
tyksen	-9.71007
ris	-9.71015
▁lisäsi	-9.71066
▁nuoren	-9.71204
isuutta	-9.71276
vy	-9.71293
▁italian	-9.71317
▁kasvi	-9.71485
▁kohtalo	-9.71533
▁sopimuksen	-9.71555
tko	-9.71619
▁ajatus	-9.71622
lassa	-9.71639
vää	-9.71663
▁mer	-9.71719
väli	-9.71767
tella	-9.71781
▁syksyllä	-9.71837
▁12.	-9.71869
▁suuria	-9.71906
▁nuorten	-9.7191
▁etenkin	-9.71953
▁mestari	-9.71959
▁näet	-9.71982
▁rauhan	-9.71988
▁9.	-9.72118
▁kulkee	-9.72162
▁1800-	-9.72165
”,	-9.72182
▁pappi	-9.72193
ero	-9.72222
▁hävisi	-9.72232
▁1996	-9.72307
oni	-9.72323
▁siltä	-9.72334
dia	-9.72379
▁ruu	-9.72391
▁hetki	-9.72477
▁seinä	-9.7251
▁tarkoitus	-9.72531
tuksi	-9.72552
▁tiedän	-9.72636
▁jolle	-9.72729
▁älä	-9.72798
isa	-9.72828
▁yllä	-9.72958
las	-9.72975
▁myöten	-9.73117
teiden	-9.73128
▁kir	-9.73141
▁veli	-9.7318
sson	-9.73184
▁15.	-9.73197
▁välissä	-9.73205
▁metalli	-9.7321
▁sor	-9.7322
sel	-9.73273
▁sellainen	-9.73349
ul	-9.7341
▁ohella	-9.73462
▁maailmassa	-9.7348
▁otettiin	-9.73482
▁8.	-9.73492
▁vettä	-9.7352
▁vähitellen	-9.73523
▁neli	-9.73535
kausi	-9.73608
▁toki	-9.73618
▁rauha	-9.73626
kel	-9.73629
▁voittanut	-9.73633
ros	-9.73648
▁minuun	-9.73665
▁1970-	-9.73684
▁helsingissä	-9.7374
▁hopeaa	-9.73755
mman	-9.73809
uksessa	-9.73815
▁vieras	-9.73823
ää	-9.73904
ze	-9.73968
malli	-9.74004
▁sisälle	-9.74094
lon	-9.74116
▁olevansa	-9.74141
▁suomeen	-9.74183
udu	-9.74198
ström	-9.74299
▁avo	-9.74338
▁suomalais	-9.74388
▁hymy	-9.74402
▁lähde	-9.7444
▁velje	-9.74481
ine	-9.74482
▁kotona	-9.74491
▁mua	-9.74529
▁kehitys	-9.74539
▁21.	-9.746
▁1998	-9.74666
▁vieressä	-9.74693
yty	-9.74728
che	-9.74732
▁kilpa	-9.74733
▁jussi	-9.74746
mmat	-9.74776
neita	-9.74782
▁sellaista	-9.74852
▁piispa	-9.74906
11	-9.74978
▁hetkellä	-9.75075
ler	-9.75109
▁kulje	-9.75149
ey	-9.75164
kappale	-9.75169
▁moottori	-9.75187
▁emäntä	-9.75199
▁pelannut	-9.752
▁perusteella	-9.75203
▁tuleva	-9.75206
telu	-9.75216
▁tuntuu	-9.75216
▁1995	-9.75257
▁nimitettiin	-9.75271
tapa	-9.75296
▁mc	-9.75306
▁paikalle	-9.75328
▁asioita	-9.754
tettava	-9.75438
ers	-9.75497
▁levi	-9.75503
▁ovi	-9.75557
jia	-9.75642
▁aluksen	-9.75733
▁kolmi	-9.75874
▁sanottu	-9.75876
▁jalka	-9.75893
▁mat	-9.75938
▁liisa	-9.75951
▁tunnen	-9.75968
▁taakse	-9.75988
koko	-9.75993
▁neuvostoliiton	-9.76005
▁olikin	-9.76091
luo	-9.76095
▁ol	-9.76128
▁joulu	-9.7614
▁14.	-9.76194
▁tytär	-9.76409
▁matkalla	-9.7641
▁1960-	-9.76414
gu	-9.76425
vuotias	-9.76481
▁sentähden	-9.76503
▁1987	-9.76521
▁1989	-9.76522
▁äitinsä	-9.76552
aatio	-9.76604
▁rai	-9.76629
missa	-9.76733
päin	-9.7678
▁osaksi	-9.76802
fo	-9.76884
▁kirje	-9.76895
▁yritti	-9.76925
em	-9.77024
▁auringon	-9.77036
▁1988	-9.77043
▁sisar	-9.77164
▁kil	-9.7725
▁tekemään	-9.77264
▁60	-9.7728
loi	-9.77388
▁mon	-9.77433
llistä	-9.77438
▁risti	-9.77458
▁vene	-9.77511
▁tyyli	-9.77553
▁martin	-9.7757
▁olimme	-9.77578
▁paul	-9.77657
▁lasta	-9.77713
▁suora	-9.77717
ksensa	-9.77801
itu	-9.77883
▁henkeä	-9.78022
▁rooli	-9.78077
läinen	-9.78155
▁suomalaisen	-9.78178
▁puheenjohtaja	-9.78199
eja	-9.78217
ment	-9.78237
▁johdosta	-9.78244
▁näkyi	-9.78256
▁sanan	-9.7826
▁1990-	-9.78299
toi	-9.78307
▁joulukuussa	-9.78319
▁alta	-9.78345
rä	-9.78414
lahden	-9.78425
ol	-9.78573
50	-9.78632
▁kuolema	-9.78648
▁naimisiin	-9.78697
▁suuret	-9.78733
▁ollessa	-9.78785
▁perustuu	-9.7889
nd	-9.78898
▁etten	-9.78941
▁lokakuussa	-9.79077
▁palo	-9.79102
ime	-9.79104
▁paikallis	-9.79117
ard	-9.79145
▁teko	-9.7917
▁kaikista	-9.79238
▁1992	-9.79271
py	-9.79279
▁ad	-9.79279
että	-9.79324
▁1980	-9.79376
▁10.	-9.79377
▁esitti	-9.79439
▁viiden	-9.79466
▁tahansa	-9.79471
ttelu	-9.7956
▁han	-9.79565
▁koho	-9.796
▁voitto	-9.79637
liitto	-9.79643
▁niihin	-9.79657
▁tapauksessa	-9.79697
tz	-9.79701
▁ympäristö	-9.79728
▁puolelle	-9.79772
▁ottelu	-9.79844
▁kel	-9.79857
▁tv	-9.79876
▁jakso	-9.79881
▁tuuli	-9.79913
▁huone	-9.79973
▁hopea	-9.79998
uri	-9.80025
▁sha	-9.8004
kohta	-9.80111
▁pri	-9.80121
▁avasi	-9.80136
30	-9.80175
sissa	-9.80226
▁lintu	-9.80291
▁marraskuussa	-9.80304
palkinnon	-9.80335
▁sanon	-9.80355
▁nykyisen	-9.80373
▁otin	-9.8041
▁parempi	-9.80427
å	-9.8043
▁lapsen	-9.80443
▁miehiä	-9.80445
▁mielestä	-9.80446
▁torni	-9.80543
▁25.	-9.80554
▁tähti	-9.80584
▁iltana	-9.80585
ie	-9.80637
▁muutama	-9.80665
kit	-9.80723
▁paperi	-9.80733
▁elokuussa	-9.80734
▁vaimonsa	-9.8075
▁pääasiassa	-9.80751
▁tuska	-9.80846
▁kädet	-9.80871
stani	-9.81055
tulo	-9.81178
▁syvä	-9.81209
▁selkä	-9.81222
▁20.	-9.81273
tava	-9.81276
▁maalia	-9.81293
▁palvelu	-9.81296
▁monia	-9.81311
ajo	-9.8133
▁kom	-9.81379
▁erilaisia	-9.8139
▁näkö	-9.81402
que	-9.81404
misestä	-9.81436
▁olympia	-9.81493
rit	-9.81501
▁huomaa	-9.81502
aja	-9.81519
▁tampereen	-9.81601
nneet	-9.81664
▁valkea	-9.81719
by	-9.81757
▁tänään	-9.81792
ottelussa	-9.81796
▁13.	-9.81851
▁kolmanneksi	-9.81858
▁lumi	-9.81911
▁sp	-9.81992
hta	-9.82015
▁suhteen	-9.8202
▁lyö	-9.82025
tetään	-9.82031
▁pääse	-9.82035
oon	-9.82038
▁jäänyt	-9.82076
▁hahmo	-9.82109
▁rinta	-9.82116
lie	-9.82116
▁19.	-9.82127
ras	-9.82135
▁gra	-9.82198
▁sanoen	-9.82201
▁kasvot	-9.82221
▁nimeä	-9.82234
▁koira	-9.82244
▁espanjan	-9.82284
▁kirjo	-9.82294
▁anti	-9.82327
▁at	-9.82383
▁pronssia	-9.82412
40	-9.82465
▁toukokuussa	-9.82566
▁laita	-9.82595
▁sini	-9.82737
▁poikki	-9.82743
▁varmasti	-9.82796
▁kenties	-9.82804
illaan	-9.82836
▁mikko	-9.82973
▁kutsutaan	-9.8307
mestari	-9.83073
▁myrsky	-9.83096
▁wi	-9.83139
suo	-9.8324
▁pat	-9.83271
▁helmikuussa	-9.83279
▁pelin	-9.83305
▁pekka	-9.83366
▁za	-9.83366
▁kohden	-9.83386
▁koi	-9.83446
▁varrella	-9.83517
istaan	-9.836
viin	-9.83715
").	-9.83746
valtio	-9.83752
▁runsaasti	-9.8376
▁iii	-9.8379
iselle	-9.83988
ttele	-9.8399
mana	-9.84039
▁lasi	-9.84041
ikan	-9.84062
port	-9.84115
▁kuuma	-9.8418
vis	-9.84203
▁1986	-9.84239
▁palaa	-9.84257
▁yhdiste	-9.8435
▁niinpä	-9.84355
▁is	-9.8448
▁teho	-9.84483
▁tosi	-9.84621
▁1984	-9.84641
tsi	-9.84728
▁syystä	-9.84734
▁rä	-9.84767
▁lei	-9.84795
▁palveli	-9.84853
▁neljän	-9.84857
kis	-9.84889
▁palvelija	-9.84916
▁painoi	-9.84921
isä	-9.84956
herra	-9.84979
▁kive	-9.84994
▁laula	-9.85065
▁kaikkiaan	-9.85083
tuksesta	-9.85126
ystä	-9.85126
▁sur	-9.85131
▁21	-9.8516
▁lind	-9.8516
▁ympärille	-9.85231
tuo	-9.85235
▁hullu	-9.85263
jos	-9.85284
▁alan	-9.85384
▁kalle	-9.85401
▁kappaleet	-9.85404
▁parhaan	-9.8541
▁pääkaupunki	-9.85463
▁saksassa	-9.85468
▁johan	-9.85476
▁huomasin	-9.85483
vet	-9.85488
uudesta	-9.85592
▁maaliskuussa	-9.8561
ttämään	-9.85632
▁perästä	-9.85632
ok	-9.85647
her	-9.85679
13	-9.85709
ttivat	-9.85721
▁28.	-9.85778
▁pyhän	-9.8578
▁laina	-9.85936
▁osti	-9.85955
▁nopea	-9.85995
▁23.	-9.86042
▁tom	-9.86049
▁olympialaisissa	-9.861
▁22.	-9.86108
vesi	-9.86112
▁saksa	-9.86114
▁verta	-9.86165
isista	-9.86166
▁1983	-9.86183
▁ter	-9.86183
aikaa	-9.86221
mäen	-9.86238
am	-9.86244
tynyt	-9.86404
miä	-9.86441
aatti	-9.86457
gg	-9.86529
▁isku	-9.86547
▁koski	-9.86619
▁taivaan	-9.8662
▁viimeisen	-9.86639
▁henrik	-9.86651
▁eihän	-9.86679
18	-9.86683
io	-9.86796
▁valmistus	-9.86812
▁taso	-9.86819
▁koh	-9.86884
laulu	-9.86896
▁kukka	-9.86903
▁len	-9.86919
▁video	-9.86978
▁ota	-9.87008
▁vih	-9.87071
pro	-9.87096
▁kah	-9.87146
▁pien	-9.87189
▁alueelle	-9.87216
▁elin	-9.87229
alta	-9.87236
▁asiaa	-9.87296
▁ottanut	-9.87317
musta	-9.8741
▁saaneet	-9.87422
ettiin	-9.87426
▁muinais	-9.87438
▁hor	-9.87461
▁syyskuussa	-9.87473
▁pakko	-9.8748
▁ihmistä	-9.87486
▁jatkaa	-9.87511
▁armo	-9.87595
▁valtakunnan	-9.87688
▁16.	-9.87737
od	-9.87752
ation	-9.87792
▁mieltä	-9.87888
▁muuttui	-9.87894
▁cha	-9.87929
▁ihana	-9.87934
▁aine	-9.87965
!»	-9.87976
ppo	-9.88044
teja	-9.88084
luvulta	-9.88115
▁1982	-9.88166
▁poikansa	-9.88173
naan	-9.88183
merkki	-9.88207
▁tiedon	-9.8822
én	-9.88221
▁hymyili	-9.88291
▁kato	-9.88315
▁eivätkä	-9.88383
▁noita	-9.8842
mainen	-9.88442
▁lääkäri	-9.88452
▁laskettiin	-9.88462
lliset	-9.88525
▁z	-9.88562
▁sijalle	-9.88583
dä	-9.88588
järjestelmä	-9.88592
▁sangen	-9.88613
15	-9.8862
▁käteni	-9.88648
▁sanoja	-9.88695
oppi	-9.88697
ksia	-9.88725
▁paine	-9.88742
▁kutsu	-9.88766
▁kumma	-9.88771
▁heinä	-9.88786
kuva	-9.88911
▁vanhemmat	-9.8892
▁lain	-9.88967
▁tunte	-9.88978
ttyä	-9.89016
▁ollen	-9.89057
empi	-9.89067
▁lienee	-9.89098
▁pieniä	-9.89119
rakennus	-9.89168
▁1972	-9.89172
▁rannalla	-9.89221
▁gu	-9.89233
ttuaan	-9.89234
pas	-9.89236
▁juoksi	-9.89253
▁david	-9.89254
▁laivasto	-9.89263
▁17.	-9.89266
kea	-9.89271
▁onkin	-9.89288
utuu	-9.8929
ola	-9.89316
▁johdolla	-9.8934
▁omia	-9.89349
▁hovi	-9.89391
▁27.	-9.89396
▁24	-9.89399
▁pii	-9.89426
kiin	-9.89451
!...	-9.89482
▁tapaan	-9.89485
res	-9.89534
▁halua	-9.89573
▁pojat	-9.89659
▁tulevat	-9.89669
▁naimisissa	-9.89677
▁kaupunkiin	-9.89725
▁matkan	-9.89769
▁koke	-9.89848
▁museo	-9.89851
▁huoli	-9.89866
▁veri	-9.89972
ya	-9.89977
etta	-9.89995
▁vero	-9.89997
▁pane	-9.90005
▁odottaa	-9.90011
tio	-9.90045
▁televisio	-9.90154
▁lausu	-9.90174
▁del	-9.90187
▁teos	-9.90197
▁valuma	-9.90246
▁es	-9.90349
skin	-9.90354
▁keino	-9.90369
kasta	-9.90381
▁james	-9.90385
▁seuraavan	-9.90412
stus	-9.90417
▁istumaan	-9.90422
▁bra	-9.90434
▁1985	-9.90444
▁katsomaan	-9.90445
▁ehti	-9.90477
▁elämää	-9.90499
ttaisi	-9.90561
▁maailma	-9.90575
16	-9.90578
▁vala	-9.90655
versio	-9.90656
▁yhtiön	-9.90664
lly	-9.90665
▁sattui	-9.90716
80	-9.90739
▁rautatie	-9.90767
▁toiselle	-9.90829
▁menee	-9.90918
isissa	-9.90932
▁heikki	-9.90954
▁suosi	-9.91035
par	-9.91041
▁synty	-9.91048
▁koetti	-9.91051
kia	-9.91075
▁saan	-9.91082
tai	-9.91099
▁liikenne	-9.91118
▁1976	-9.91129
vii	-9.91187
ori	-9.91208
▁sula	-9.91208
▁24.	-9.91251
mestaruuden	-9.91305
▁taa	-9.9132
▁savu	-9.91378
▁sijaitsi	-9.91386
▁ui	-9.91416
▁29.	-9.91435
▁bre	-9.915
▁26.	-9.91547
ic	-9.91588
oilla	-9.91589
▁suurempi	-9.91631
▁kirjeen	-9.91671
jää	-9.91678
▁kolmannen	-9.91731
▁vaikutti	-9.91759
▁nautti	-9.91804
albumi	-9.91843
▁järjestettiin	-9.91992
ole	-9.92052
▁kär	-9.9206
teitä	-9.92061
uksissa	-9.92076
▁huhtikuussa	-9.92078
suku	-9.92085
toimi	-9.92156
▁asuu	-9.92187
▁mr	-9.92197
▁port	-9.92202
etti	-9.92257
▁maali	-9.92293
▁neljäs	-9.92296
▁ale	-9.92313
▁hau	-9.9233
oo	-9.92347
▁pre	-9.92382
kot	-9.92404
▁vel	-9.92429
▁äidin	-9.92541
jaa	-9.92593
▁matala	-9.9262
▁30.	-9.92623
▁teksti	-9.92721
▁jou	-9.92755
q	-9.92764
▁tuho	-9.92765
▁riemu	-9.9287
hun	-9.92873
▁puolustus	-9.92915
▁britannian	-9.92945
▁parhaiten	-9.92948
▁il	-9.92985
▁aalto	-9.93012
▁18.	-9.93021
lahti	-9.93023
▁katu	-9.93058
▁kesäkuussa	-9.931
▁kesti	-9.93153
llo	-9.93188
▁johtaa	-9.93225
▁juoni	-9.93232
▁jättää	-9.93242
▁tekivät	-9.93338
▁ehdo	-9.93378
▁rata	-9.93379
hl	-9.93416
▁23	-9.93419
▁asunto	-9.93484
▁tapahtuu	-9.93499
_,	-9.93513
ismi	-9.93526
▁hoi	-9.93542
▁olemaan	-9.93552
mur	-9.93603
▁ime	-9.93652
▁sal	-9.93693
yr	-9.93716
▁tuomio	-9.93764
elin	-9.93774
▁vaali	-9.93781
▁selvä	-9.93825
▁historian	-9.93828
oita	-9.93873
vir	-9.93878
vista	-9.93898
koi	-9.93906
▁edellä	-9.93951
▁vartalo	-9.93954
▁murha	-9.9397
▁heimo	-9.93972
?»	-9.94031
▁toisinaan	-9.94149
▁neuvostoliitto	-9.94172
▁tiede	-9.94209
▁soitti	-9.94219
▁luonto	-9.94238
▁puoliso	-9.94287
17	-9.94351
▁poissa	-9.94371
▁ty	-9.94395
▁perheen	-9.94458
▁tavataan	-9.94496
▁1975	-9.94539
▁milloinkaan	-9.94539
▁luokse	-9.9456
▁huomiota	-9.94568
▁don	-9.94611
luokan	-9.9464
▁tapahtuma	-9.9466
▁kuulunut	-9.94703
▁vaunu	-9.9483
▁oulun	-9.94857
▁ääne	-9.94861
▁kulku	-9.94888
▁taikka	-9.94897
▁ulkopuolella	-9.94899
▁auttaa	-9.94907
▁paikan	-9.94942
stö	-9.94944
ilija	-9.94971
▁liha	-9.94997
nes	-9.95
▁palvelus	-9.95063
onin	-9.95074
▁irti	-9.95076
vuotiaiden	-9.95094
▁hankki	-9.95106
▁vahva	-9.95158
▁kerro	-9.95169
▁hol	-9.95195
▁saatiin	-9.95204
▁viini	-9.95269
▁kauhu	-9.95281
▁kirjoitta	-9.95283
▁ottelun	-9.95308
▁tal	-9.95346
fe	-9.95348
▁keho	-9.95358
jaan	-9.95414
▁lopetti	-9.95436
▁star	-9.95477
aksi	-9.95553
▁väi	-9.95554
▁pul	-9.95567
ini	-9.95588
▁sormi	-9.95667
▁laskee	-9.95686
ari	-9.95689
▁entistä	-9.95694
▁ajattelin	-9.95718
▁apu	-9.95772
ling	-9.9583
▁päivi	-9.9591
lau	-9.95921
▁ollenkaan	-9.95934
	-9.96018
mpana	-9.96072
▁huippu	-9.9611
▁ketään	-9.96113
▁toisaalta	-9.9615
▁löytää	-9.96156
dis	-9.96211
▁1973	-9.96243
▁täysi	-9.96256
kossa	-9.96264
▁pir	-9.9627
▁timo	-9.96373
hdin	-9.96417
▁harmaa	-9.96441
▁ulkona	-9.96444
▁peter	-9.96474
vansa	-9.96484
▁kirjasto	-9.9656
uk	-9.96569
▁apua	-9.96624
▁rakenne	-9.96631
▁nuor	-9.96632
▁pika	-9.96641
▁puolueen	-9.96663
▁ze	-9.96685
▁lait	-9.96696
▁eniten	-9.96706
▁tuntee	-9.96719
▁talossa	-9.96727
tyyli	-9.96733
▁päänsä	-9.96756
▁päätteeksi	-9.96785
▁hanna	-9.96811
nimi	-9.96823
pun	-9.9683
des	-9.96885
▁eräänä	-9.96917
teeseen	-9.96931
▁bro	-9.96933
▁sanotaan	-9.96959
▁kaiva	-9.96969
ttaja	-9.97014
▁lasku	-9.9704
▁astu	-9.97099
▁ruotsissa	-9.97111
▁hilja	-9.97128
▁leikki	-9.97164
ius	-9.97187
▁300	-9.97195
▁hää	-9.97202
kut	-9.97229
▁maksa	-9.97291
▁nor	-9.97304
▁linnan	-9.97351
▁tavara	-9.97365
▁sentään	-9.97388
▁joihin	-9.9739
▁1974	-9.97426
sana	-9.97431
ssani	-9.97457
▁todellakin	-9.97462
kul	-9.97465
▁lukuun	-9.97477
puol	-9.97509
isku	-9.97532
▁hai	-9.97539
▁sam	-9.97549
▁köyhä	-9.9765
▁yön	-9.97662
▁kuvi	-9.97691
▁ajo	-9.97733
▁tapasi	-9.97825
▁sarjassa	-9.97929
asia	-9.97936
aine	-9.97953
▁vaiva	-9.98088
tukset	-9.98096
johtaja	-9.98145
ó	-9.98199
▁satama	-9.98207
▁lähetti	-9.98208
-19	-9.98229
▁kasvu	-9.98237
▁metsän	-9.98266
otto	-9.98325
▁heinäkuussa	-9.98343
▁esittää	-9.98374
▁suori	-9.98425
▁laati	-9.98466
yh	-9.98481
asti	-9.98636
▁seuraava	-9.98667
▁george	-9.9869
▁hengen	-9.98716
▁rahaa	-9.98784
▁viittaa	-9.98849
kyllä	-9.98884
aari	-9.98959
osta	-9.98959
▁nosta	-9.98959
▁luke	-9.98972
▁orja	-9.99003
▁1900-	-9.99045
▁1945	-9.99088
▁osallistu	-9.9914
▁pelo	-9.99215
»	-9.99223
mille	-9.99262
▁saavat	-9.99296
▁valvo	-9.99331
▁vähemmän	-9.99352
▁seurakunta	-9.99401
pp	-9.99433
▁los	-9.99438
▁tuu	-9.99582
▁syn	-9.99586
bin	-9.99601
▁pillu	-9.9964
ban	-9.99662
utunut	-9.99669
▁makasi	-9.99697
60	-9.99739
lehden	-9.99794
jän	-9.99795
▁anni	-9.99831
▁johannes	-9.99845
▁pysy	-9.99885
▁asiasta	-9.99897
▁1978	-9.99929
luokka	-9.9996
laiva	-9.99979
▁romaani	-9.99988
▁tan	-10.0006
▁taiteilija	-10.0007
▁välistä	-10.001
▁viisa	-10.0013
▁ottamatta	-10.0013
25	-10.0013
miehet	-10.0015
▁1944	-10.0021
bra	-10.0025
▁ilmeisesti	-10.0033
yhtyeen	-10.0034
▁nahka	-10.0041
yttä	-10.0049
▁hyväksy	-10.005
▁omistaja	-10.0056
▁22	-10.0056
▁york	-10.0059
▁hyväksi	-10.0062
▁ranska	-10.0067
▁kreikan	-10.0068
▁toisiaan	-10.0072
▁kaikkein	-10.0077
▁kuulin	-10.0079
▁hyödy	-10.0081
▁kulu	-10.0084
▁mil	-10.0086
▁seuraavat	-10.0086
suomen	-10.009
vina	-10.0092
▁kartano	-10.01
▁kanna	-10.0101
▁jonne	-10.0106
▁1968	-10.0106
▁por	-10.0106
rk	-10.0108
sinä	-10.0115
▁jälki	-10.0117
villa	-10.0123
▁1977	-10.0125
▁vuosittain	-10.0125
▁sija	-10.0127
eissa	-10.0129
▁ansiosta	-10.013
▁kunnassa	-10.0137
▁juna	-10.0143
koja	-10.0145
▁aamulla	-10.0145
▁19	-10.0146
▁tahtoo	-10.0149
▁leiri	-10.0156
kaudella	-10.0163
▁1941	-10.0163
manin	-10.0178
▁myy	-10.0178
▁vaihe	-10.0181
▁ber	-10.0181
▁palvelukseen	-10.0188
▁viera	-10.0188
ik	-10.019
mö	-10.0191
▁michael	-10.0192
▁tiennyt	-10.0198
con	-10.0199
▁kansalais	-10.02
▁solmi	-10.0201
▁rap	-10.0214
▁vieläkin	-10.0215
▁ellei	-10.0216
▁matkaa	-10.0218
▁suoritti	-10.0219
▁kemi	-10.0224
▁voin	-10.0232
▁saadaan	-10.0234
▁tilaa	-10.0235
▁pelto	-10.024
▁saatu	-10.0243
▁suuresti	-10.0246
▁pysyi	-10.0246
itte	-10.0257
▁top	-10.026
raa	-10.0261
sch	-10.0261
▁ikään	-10.0262
ttänyt	-10.0268
▁ven	-10.0268
hyvä	-10.0276
▁pyrki	-10.0282
rei	-10.0282
▁heitti	-10.0293
▁näytteli	-10.0294
hel	-10.0295
▁ensimmäisellä	-10.0298
▁studioalbumi	-10.0298
▁ul	-10.0298
tävä	-10.0298
▁pop	-10.0303
▁sairas	-10.0303
▁helpo	-10.0304
▁mitta	-10.0305
▁tö	-10.031
▁tuntia	-10.0312
piste	-10.0312
▁ruotsi	-10.0313
▁tulevan	-10.0313
▁herttua	-10.0313
hahmo	-10.0314
▁tro	-10.0317
▁ruumiin	-10.0321
▁keskustelu	-10.0322
▁käsin	-10.0323
▁vaikuttaa	-10.0323
haa	-10.0328
▁hallitsija	-10.0328
▁läksi	-10.0335
▁suinkaan	-10.0336
ikä	-10.0337
yö	-10.0338
▁dan	-10.0342
▁omat	-10.0342
▁viikon	-10.0344
▁jäsenet	-10.0347
oitu	-10.0349
▁eläin	-10.0349
▁vo	-10.0349
▁valtaa	-10.0352
▁silmiin	-10.0355
▁millä	-10.0355
om	-10.0356
▁ensimmäisessä	-10.0356
bb	-10.036
tukseen	-10.0361
▁japanin	-10.0361
▁ur	-10.0364
▁ääntä	-10.0366
ret	-10.0366
▁jatka	-10.0368
tonta	-10.0369
oista	-10.0371
▁alettiin	-10.0372
▁päätään	-10.0374
▁säily	-10.0374
▁normaali	-10.0375
▁kilpailun	-10.038
▁sinulla	-10.0385
▁kul	-10.0386
▁nähden	-10.0386
▁upseeri	-10.0392
▁1981	-10.0395
▁1979	-10.04
▁niska	-10.0401
▁nii	-10.0402
▁hyvästi	-10.0404
▁nimeltä	-10.0408
▁voiton	-10.0411
mästä	-10.0411
▁sävel	-10.0414
isiksi	-10.0416
▁putosi	-10.042
moottori	-10.0424
▁mahtava	-10.0428
▁1970	-10.0428
▁vaikutus	-10.0428
vuonna	-10.0434
ilma	-10.0436
mpiä	-10.0438
▁mac	-10.0441
▁herran	-10.0445
ad	-10.0451
"),	-10.0451
▁yhtään	-10.0452
▁ohjaama	-10.0455
▁ed	-10.0466
▁ek	-10.0466
idi	-10.0468
perä	-10.0475
tämä	-10.0478
▁nar	-10.0478
▁kaluni	-10.0478
halli	-10.0481
ttaessa	-10.0482
▁estää	-10.0484
laa	-10.0492
▁väestö	-10.0496
▁parasta	-10.0501
▁kiitos	-10.0507
▁kohtaa	-10.0512
enä	-10.0512
▁aikoi	-10.0515
▁työnsi	-10.0517
ttivät	-10.0519
▁richard	-10.0524
tri	-10.0525
▁uhri	-10.0525
gel	-10.0527
kala	-10.053
kee	-10.0533
▁anta	-10.0536
tion	-10.0537
▁posti	-10.0542
▁luultavasti	-10.0542
matka	-10.0545
▁tunnin	-10.0546
piiri	-10.0546
tos	-10.0547
▁1964	-10.0553
▁tietokone	-10.0559
▁selvi	-10.0559
▁julkis	-10.0563
▁1940	-10.0566
▁kuningatar	-10.0571
▁satu	-10.0571
▁villi	-10.0572
matto	-10.0574
▁enempää	-10.0576
▁onnistu	-10.0577
vaan	-10.0578
▁laa	-10.0579
isilla	-10.058
uransa	-10.0589
tonin	-10.0593
ld	-10.0594
▁huole	-10.0596
▁entisen	-10.0597
▁grand	-10.0598
▁tava	-10.0602
▁1960	-10.0607
silla	-10.0609
▁kokoelma	-10.0614
uksiin	-10.0618
eh	-10.0619
▁bal	-10.0621
▁minulta	-10.0622
teri	-10.0627
tes	-10.0629
▁gal	-10.0635
▁hir	-10.0636
▁ohjasi	-10.0638
▁ag	-10.0641
▁ele	-10.0654
▁rooman	-10.0656
neena	-10.066
▁pla	-10.0661
▁anne	-10.0663
▁mah	-10.0666
▁teh	-10.0668
▁euroopassa	-10.0675
▁maasta	-10.0677
▁ajatella	-10.0679
▁sankari	-10.068
▁viesti	-10.0681
▁kylässä	-10.0685
▁lajin	-10.0687
▁riisu	-10.0687
tom	-10.0698
ologi	-10.0699
vil	-10.07
▁media	-10.0702
vel	-10.0706
▁ac	-10.0707
▁johto	-10.0708
▁mikäli	-10.071
▁kaikesta	-10.0713
▁1969	-10.0713
▁oikeastaan	-10.0717
▁kara	-10.0717
▁kaikissa	-10.0724
▁vakava	-10.0725
hei	-10.0726
▁william	-10.0727
▁erityis	-10.0728
niemen	-10.073
▁lähte	-10.0735
uka	-10.0751
14	-10.0752
kir	-10.0754
▁siirto	-10.0757
▁jean	-10.0758
▁kilpaili	-10.0758
▁men	-10.0759
▁taistelussa	-10.0763
▁nimeltään	-10.0769
▁kirjoittanut	-10.0771
▁kulli	-10.0774
▁yksilö	-10.0776
▁lajia	-10.0777
▁huomattavasti	-10.078
uh	-10.0782
▁silti	-10.0785
▁kanssaan	-10.0786
cha	-10.0787
▁1971	-10.0794
▁jalkapalloilija	-10.0794
▁ran	-10.0794
ak	-10.0798
▁run	-10.08
tystä	-10.0801
äh	-10.0806
keä	-10.0808
kaupunki	-10.0813
joita	-10.0813
▁ohja	-10.0816
▁korke	-10.0821
isto	-10.0822
▁minne	-10.0831
iko	-10.0833
▁huoneen	-10.0834
▁minäkin	-10.0834
tš	-10.0836
▁war	-10.0838
▁määrää	-10.0841
▁aikojen	-10.0846
▁huoneessa	-10.0846
▁saksalainen	-10.0848
eista	-10.0853
au	-10.0856
▁mainittu	-10.0856
▁tre	-10.0859
▁nussi	-10.0863
▁neuvosto	-10.0863
von	-10.0865
▁ravintola	-10.0866
▁1950-	-10.0872
▁mark	-10.0876
jät	-10.0876
▁chi	-10.0877
▁muualla	-10.0878
▁myöskään	-10.0879
▁yleisesti	-10.0881
▁viereen	-10.0881
aste	-10.0881
▁kuukauden	-10.089
▁vuokra	-10.0896
▁kla	-10.0897
▁työväen	-10.0897
ther	-10.0897
▁pöydän	-10.0903
▁kymmen	-10.0907
▁kädessä	-10.092
▁kat	-10.092
dit	-10.0922
▁hedelmä	-10.0923
▁joutunut	-10.0927
▁rakkaus	-10.0935
iste	-10.0936
▁1967	-10.0937
▁kaikille	-10.0938
pohja	-10.0938
▁äänen	-10.0941
▁kiinan	-10.0944
▁sperma	-10.0944
veli	-10.0946
▁yrityksen	-10.0949
▁kasva	-10.095
▁kiire	-10.0951
▁ajalla	-10.0951
▁niillä	-10.0952
▁piilo	-10.0953
▁lapsia	-10.0955
shi	-10.0955
▁matkustaja	-10.0961
onia	-10.0962
▁taajama	-10.0966
ttaneet	-10.0967
▁joukot	-10.0971
▁mit	-10.0983
huone	-10.0986
▁veljensä	-10.0987
▁louis	-10.0991
▁pila	-10.0992
▁sanaa	-10.0994
pinta	-10.0996
▁pidetty	-10.0999
▁kaarle	-10.1006
▁ankara	-10.1008
▁kahta	-10.1008
▁hymyillen	-10.101
▁80	-10.101
▁menin	-10.102
▁lentokone	-10.1023
▁löytyy	-10.1024
risti	-10.1025
tanut	-10.1026
▁liiku	-10.1029
ds	-10.1032
kur	-10.1032
▁aio	-10.1032
▁kra	-10.1038
▁pil	-10.1041
▁kulma	-10.1043
▁pietari	-10.1043
ttavat	-10.1043
▁carl	-10.1049
▁suostu	-10.1049
luu	-10.1054
▁pesä	-10.1054
▁ykkös	-10.1056
ukka	-10.1058
▁kierroksella	-10.1061
▁kumminkin	-10.1062
▁huoneeseen	-10.1062
–2	-10.1062
▁ymmärrä	-10.1065
ive	-10.1068
▁erosi	-10.1071
▁koostuu	-10.1074
▁seuraavia	-10.1076
▁kesäolympialais	-10.1082
▁albert	-10.1085
▁1939	-10.1093
▁huomannut	-10.1093
▁lentoasema	-10.1097
sija	-10.11
▁tuohon	-10.1101
▁toimeen	-10.1103
▁elävä	-10.1103
▁neliökilometriä	-10.1103
llani	-10.1104
▁kirjoittaa	-10.1107
▁halunnut	-10.1107
▁arveli	-10.1107
▁maailmanmestar	-10.111
▁kehi	-10.1111
▁käänsi	-10.1111
chin	-10.1113
▁öljy	-10.1115
uu	-10.1117
▁sanoma	-10.1118
▁raska	-10.1118
cy	-10.1119
housu	-10.112
▁syytä	-10.1123
▁saata	-10.1123
ilee	-10.1125
paino	-10.1132
zin	-10.1132
▁toime	-10.1132
▁tuottaa	-10.1135
▁puolelta	-10.1136
▁täti	-10.1139
▁mahdollisesti	-10.114
▁osuus	-10.1143
tön	-10.1144
sivu	-10.1146
▁ikkuna	-10.1157
▁itsekin	-10.1164
▁kokoon	-10.1165
▁merkki	-10.1166
▁lopuksi	-10.1166
▁seurassa	-10.1169
▁toisensa	-10.117
▁katto	-10.1171
tiivi	-10.1173
▁fc	-10.1175
▁prinssi	-10.1179
vaunu	-10.1182
▁musiikin	-10.1182
▁näkyy	-10.1185
▁minuuttia	-10.1188
vissa	-10.1192
tettävä	-10.1194
gar	-10.1204
▁tuotti	-10.1208
▁hiero	-10.1216
▁karva	-10.1217
tse	-10.1219
▁1952	-10.1219
ttaen	-10.1221
nö	-10.1221
op	-10.1231
▁oliko	-10.1232
▁bur	-10.1233
▁täyttä	-10.1234
▁un	-10.1235
bergin	-10.1235
▁raivo	-10.1242
▁cupin	-10.1244
▁mukanaan	-10.1255
ointi	-10.1259
▁tausta	-10.1267
▁pehmeä	-10.1274
▁tuoksu	-10.1275
▁norjan	-10.1282
▁liu	-10.1282
tyksiä	-10.1289
▁toimivat	-10.1289
▁viikkoa	-10.129
▁hil	-10.129
▁sääli	-10.129
▁monen	-10.1292
ula	-10.1301
jev	-10.1304
bert	-10.1304
pel	-10.1305
▁verkko	-10.1305
itta	-10.1308
▁saira	-10.1311
▁tuosta	-10.1314
järjestö	-10.1314
▁näkee	-10.1316
▁juur	-10.1316
▁annan	-10.1317
cu	-10.1322
▁alka	-10.1325
▁yleinen	-10.1328
▁suuntaan	-10.1329
▁kuuluisa	-10.1338
▁tuntenut	-10.1345
▁ara	-10.1348
alueella	-10.1348
▁tul	-10.1349
uta	-10.135
vara	-10.1351
▁koulun	-10.1352
▁world	-10.1355
olen	-10.1358
▁haa	-10.1359
▁oikeuden	-10.1363
▁pääministeri	-10.1363
▁vas	-10.1366
▁jokaisen	-10.1368
sota	-10.1368
veden	-10.137
▁ison	-10.1371
▁kestää	-10.1372
▁sie	-10.1372
▁olento	-10.1374
▁ilmi	-10.1377
▁vuoristo	-10.1382
▁ongelma	-10.1387
▁1966	-10.1391
▁mukaisesti	-10.1395
▁löysi	-10.1397
▁ruusu	-10.14
▁hyvät	-10.1401
▁itseäni	-10.1407
▁pah	-10.1408
▁nousu	-10.1411
pit	-10.1422
▁yhtäkkiä	-10.1424
mas	-10.1425
▁hevos	-10.1427
▁suuhuni	-10.1429
kos	-10.1432
ig	-10.1432
ep	-10.1435
rus	-10.1438
▁kauhea	-10.1438
▁vaiheessa	-10.144
oksi	-10.1441
▁elo	-10.1442
▁martti	-10.1447
▁tilalle	-10.1453
▁mielen	-10.1454
▁asettui	-10.1455
▁kie	-10.1456
▁otsa	-10.1457
ettu	-10.1458
▁sol	-10.1461
tyn	-10.1462
▁väki	-10.1463
▁tau	-10.1464
▁luostari	-10.1465
▁ce	-10.1466
▁äsken	-10.1466
▁esiintynyt	-10.1467
usten	-10.1468
▁pie	-10.1471
ahti	-10.1475
▁kaveri	-10.1476
▁1965	-10.1477
▁talli	-10.1484
▁perusta	-10.1489
▁opetus	-10.149
▁luulen	-10.1491
▁näy	-10.1494
▁juha	-10.1498
▁halli	-10.1503
▁elämänsä	-10.1505
stein	-10.1507
▁ep	-10.151
seksi	-10.1512
yt	-10.1512
▁lin	-10.1512
21	-10.1517
▁alkuperäis	-10.1522
▁laivan	-10.1528
bel	-10.1529
onsa	-10.1529
▁black	-10.1529
▁hetkeksi	-10.1531
laitos	-10.1534
▁mas	-10.1536
kiä	-10.1537
▁vah	-10.1543
▁ava	-10.1546
▁kyse	-10.1546
▁nykyinen	-10.1546
▁käsittää	-10.1547
emmin	-10.1551
▁liitettiin	-10.1558
uksella	-10.1559
▁kuluessa	-10.1559
misessa	-10.1559
▁voittaja	-10.1562
▁vaalea	-10.1562
kosken	-10.1563
▁rau	-10.1566
▁jaakko	-10.1566
ttavan	-10.1566
▁ratsu	-10.1566
▁pienet	-10.1567
▁kokoonpano	-10.1568
▁aloit	-10.1571
▁hätä	-10.1576
▁mie	-10.1584
▁avu	-10.1593
▁1956	-10.1598
▁rin	-10.1598
▁kauni	-10.1603
▁saha	-10.1608
taso	-10.161
ika	-10.1613
win	-10.1618
ttelee	-10.1619
▁ir	-10.1619
▁air	-10.1622
▁kuiskasi	-10.1626
▁varustettu	-10.1626
ologia	-10.1627
kylä	-10.1632
▁valitsi	-10.1632
▁karja	-10.1636
▁miss	-10.1638
▁seikka	-10.164
▁muissa	-10.1642
tul	-10.1645
▁ci	-10.1646
▁illalla	-10.1647
▁puoleen	-10.1648
▁nimittäin	-10.1653
kulma	-10.1653
▁pitä	-10.1655
24	-10.1662
▁karl	-10.1663
yys	-10.1673
kunnassa	-10.1674
fer	-10.1674
▁aivo	-10.1678
kissa	-10.1682
▁ranskassa	-10.1683
amaan	-10.1686
▁jääkäri	-10.1686
▁nope	-10.1687
▁siemen	-10.1688
▁käytännössä	-10.1689
olla	-10.1693
▁mietti	-10.1695
▁teoksen	-10.1697
▁voimakkaasti	-10.1698
▁metal	-10.17
▁pientä	-10.1701
▁aikoina	-10.1702
▁=	-10.1703
▁pei	-10.1704
▁toimiva	-10.1704
▁kana	-10.1706
▁tietoa	-10.1707
▁jun	-10.1708
▁1948	-10.1709
[	-10.171
akseen	-10.1714
▁esille	-10.1716
▁cla	-10.1717
▁uskon	-10.1717
▁rikko	-10.1718
▁osittain	-10.172
▁suunnittelu	-10.1722
▁muodostaa	-10.1724
▁rakasta	-10.1726
▁lahja	-10.1731
▁komea	-10.1734
bar	-10.1735
▁ville	-10.1737
▁venäjällä	-10.1738
joh	-10.1739
wan	-10.1741
▁pääosin	-10.1744
yyttä	-10.1747
▁joukkueessa	-10.1748
▁esitettiin	-10.1749
▁kertoa	-10.1749
saaren	-10.175
pari	-10.1752
▁ch	-10.1759
jon	-10.176
seni	-10.176
▁olevat	-10.1761
▁meidät	-10.1764
▁1942	-10.1765
▁trans	-10.1768
kov	-10.177
▁vihreä	-10.1773
kkari	-10.178
ikki	-10.1781
uutensa	-10.1781
▁yhdysvallat	-10.1787
▁kantaa	-10.179
▁virta	-10.179
▁kaukana	-10.1795
lö	-10.1797
▁euroa	-10.1799
▁august	-10.1806
▁ana	-10.1806
▁vaa	-10.1807
▁kaasu	-10.1807
▁temppeli	-10.1808
metsä	-10.1812
▁koulutus	-10.1818
steli	-10.1821
▁kiima	-10.1825
▁tekemä	-10.1827
zo	-10.1827
sor	-10.1828
ovi	-10.1829
▁lähtö	-10.1833
▁päätä	-10.1833
▁red	-10.1834
90	-10.1838
▁tarkoituksena	-10.1843
▁syvälle	-10.1844
osasto	-10.1845
▁kahteen	-10.1846
▁vaara	-10.1846
car	-10.1849
xi	-10.1852
vuo	-10.1852
▁lupaa	-10.1853
▁ymmärsi	-10.1854
▁noussut	-10.1854
▁löi	-10.1857
▁surma	-10.1859
▁maantie	-10.1859
▁asiat	-10.1863
▁äly	-10.1864
▁veren	-10.1867
▁säveltäjä	-10.1868
yyden	-10.1869
▁lause	-10.1873
▁hänessä	-10.1877
▁charles	-10.1877
era	-10.1878
▁ant	-10.188
▁kovasti	-10.1883
▁kohdalla	-10.1889
▁tuoli	-10.1891
▁runkosarja	-10.1895
uru	-10.1898
▁syrjä	-10.1898
▁tarpee	-10.1898
▁peräisin	-10.1903
▁runoilija	-10.1903
▁kevät	-10.1907
asu	-10.1909
▁kim	-10.1909
▁ooppera	-10.1923
▁gar	-10.1926
▁juoksu	-10.1926
▁hiekka	-10.1926
▁vapautu	-10.1928
▁ryhtyi	-10.1928
▁toimintaa	-10.1929
▁ymmärtää	-10.1935
▁toisten	-10.1937
▁sijaitsevat	-10.194
▁rivi	-10.1943
▁by	-10.1943
▁kimppuun	-10.1945
sonin	-10.1948
teltiin	-10.1951
▁1917	-10.1957
▁tasavallan	-10.1957
isivat	-10.1959
▁ranskalainen	-10.196
eilla	-10.1962
ist	-10.1972
ksensä	-10.1974
▁dollaria	-10.1975
palkinto	-10.1976
▁ottamaan	-10.1983
▁hevosen	-10.1985
hr	-10.1985
▁himo	-10.199
saa	-10.199
▁1943	-10.1991
▁maja	-10.2
▁joukkoon	-10.2003
sty	-10.2007
miehiä	-10.2007
pallo	-10.2013
▁ansio	-10.2014
▁johtama	-10.2015
▁teillä	-10.2019
▁valmista	-10.202
▁osasto	-10.2022
▁synti	-10.2025
▁kuun	-10.2026
▁esitetty	-10.2035
▁70	-10.2035
▁lit	-10.2039
▁kysymys	-10.2043
▁vietti	-10.2047
▁entis	-10.2053
▁lippu	-10.2053
▁toveri	-10.2055
▁varsinais	-10.2055
hal	-10.2061
▁tumma	-10.2062
yy	-10.2062
▁sisääni	-10.2062
▁toiminnan	-10.2074
oissa	-10.2076
▁lantio	-10.2076
ney	-10.2077
niemi	-10.2082
▁hotelli	-10.2083
▁pelipaikalta	-10.2083
▁historiaa	-10.2086
▁ex	-10.2087
pol	-10.2087
▁olkoon	-10.21
▁rikos	-10.2104
essani	-10.2104
▁aikuis	-10.2106
sella	-10.2108
▁jäädä	-10.2109
▁kisa	-10.2114
▁uskonnollis	-10.2114
▁metrillä	-10.2121
▁pistettä	-10.2126
▁pohjan	-10.2126
▁pelkää	-10.2126
▁koro	-10.2127
▁puh	-10.2132
▁suurimman	-10.2135
rik	-10.2138
▁bon	-10.2139
▁aikoihin	-10.2146
▁ahl	-10.2149
eihin	-10.2153
▁huuto	-10.2162
70	-10.2165
▁ak	-10.2169
▁kutsui	-10.217
▁pas	-10.217
▁itseni	-10.2175
▁pronssi	-10.2175
▁kirjoitus	-10.2175
ft	-10.2178
▁mika	-10.2179
▁studio	-10.218
isina	-10.2182
▁pisti	-10.2184
▁johtajana	-10.2186
▁ratkaisu	-10.2187
▁1963	-10.2188
▁pullo	-10.2193
ellen	-10.2195
ira	-10.2196
tellä	-10.2197
▁hajo	-10.22
▁peru	-10.2203
▁tulleet	-10.2209
▁1919	-10.2211
▁1936	-10.2211
ning	-10.2214
▁käden	-10.2219
tieto	-10.2219
▁päältä	-10.2222
▁julkaisema	-10.2223
▁suunnitteli	-10.2224
▁uutis	-10.2226
▁viimeksi	-10.2243
soi	-10.2244
▁paavi	-10.2245
▁mukaansa	-10.2253
▁onnistunut	-10.2257
▁paluu	-10.2259
▁bri	-10.2264
▁miehensä	-10.2265
▁olli	-10.2266
uli	-10.2268
▁korkein	-10.2275
▁palkinto	-10.2278
▁kunnon	-10.2278
lit	-10.2279
tuksessa	-10.2283
▁muuttaa	-10.2286
▁nenä	-10.229
▁levinneisyys	-10.2291
▁tuomari	-10.2292
▁avaruus	-10.2293
▁nuoriso	-10.2295
▁tälle	-10.2298
yksiä	-10.2299
▁hannu	-10.23
▁lupasi	-10.23
historia	-10.2301
▁saksalais	-10.2302
rö	-10.2303
▁lista	-10.2306
▁antiikin	-10.2306
▁peto	-10.2307
sko	-10.2309
tis	-10.2311
ope	-10.2314
▁määrin	-10.2314
rd	-10.2314
▁huu	-10.2318
▁yhdisty	-10.2318
▁maala	-10.2331
▁muistuttaa	-10.2331
milla	-10.2331
▁rauhassa	-10.2335
mmän	-10.2336
▁800	-10.234
▁tuke	-10.234
▁jotkut	-10.2341
tyä	-10.2342
▁tappio	-10.2345
mpaan	-10.2349
▁ylen	-10.2349
▁hellästi	-10.235
▁pyy	-10.2355
35	-10.2356
▁lainkaan	-10.236
ette	-10.2361
▁arvostelu	-10.2363
happo	-10.2363
▁vuodessa	-10.2365
▁lähelle	-10.2367
▁kovaa	-10.2368
ava	-10.2369
▁viimeiset	-10.2373
▁cu	-10.2375
▁euro	-10.238
ble	-10.2384
▁näky	-10.2387
▁mus	-10.2389
let	-10.239
keskuksen	-10.2393
▁puolustaja	-10.2395
▁ste	-10.2395
mun	-10.2403
▁arkkitehti	-10.2406
toimisto	-10.2407
meri	-10.2408
ua	-10.2409
▁läänin	-10.2414
▁luuli	-10.2416
wo	-10.2417
▁omasta	-10.2418
▁sit	-10.2418
▁suuhun	-10.242
ngin	-10.2421
▁kaupungista	-10.2424
▁kro	-10.2424
teita	-10.2427
▁ee	-10.2431
▁kiusa	-10.2431
▁yhteisö	-10.2432
▁muihin	-10.2434
▁lehden	-10.2435
▁puheenjohtajana	-10.2437
▁35	-10.2437
hdi	-10.2438
▁pastori	-10.2439
▁keskenään	-10.2443
▁samo	-10.2443
▁sar	-10.2443
▁uh	-10.2444
▁pahaa	-10.2444
▁näköinen	-10.2445
elli	-10.2454
▁ser	-10.2457
tter	-10.2461
▁palatsi	-10.2463
joukko	-10.2463
isille	-10.2465
puhe	-10.2467
▁pyörä	-10.2481
▁nousee	-10.2484
▁pysähtyi	-10.2488
puisto	-10.249
▁teidät	-10.2496
pur	-10.2496
▁kamari	-10.2501
▁näen	-10.2502
burg	-10.2504
▁can	-10.2507
▁hell	-10.2512
▁suuteli	-10.2515
▁koivu	-10.2516
muodo	-10.2518
kär	-10.2519
▁pyhi	-10.252
▁puhta	-10.2523
▁pyytää	-10.2524
can	-10.2524
▁kuunteli	-10.2525
(	-10.2526
isestä	-10.2526
▁mustan	-10.2528
▁juoma	-10.2529
▁totesi	-10.253
ssin	-10.2532
▁kalli	-10.2536
ae	-10.2536
omi	-10.2537
▁kuuluivat	-10.2537
▁viides	-10.2539
▁useat	-10.2542
▁varo	-10.2543
sessa	-10.2543
▁liikkeen	-10.2544
▁jatkui	-10.2545
▁daniel	-10.2548
▁paljoa	-10.2549
▁parin	-10.2551
▁rinnalla	-10.2557
▁lukio	-10.2567
▁kap	-10.2567
koira	-10.2567
▁myynti	-10.2573
▁oh	-10.2574
▁kop	-10.2579
nus	-10.258
▁(1	-10.2585
▁jäl	-10.2585
▁omista	-10.2588
neitä	-10.2589
▁1962	-10.2593
2.	-10.2605
▁ulkonäkö	-10.2606
▁vastoin	-10.2606
kassa	-10.2607
▁ollessaan	-10.2613
▁auton	-10.2613
▁karhu	-10.2615
▁ram	-10.262
▁kutsuttiin	-10.2622
▁teollisuus	-10.2623
dd	-10.2624
esin	-10.2625
por	-10.2627
äni	-10.2627
▁häpeä	-10.2629
▁aiheuttaa	-10.2631
ill	-10.2631
▁toisiinsa	-10.2633
▁puolet	-10.2637
keen	-10.2642
iltansa	-10.2644
▁city	-10.2645
▁maakunta	-10.2645
▁salo	-10.2646
94	-10.2652
▁perässä	-10.2659
▁af	-10.2668
▁vanhin	-10.2674
▁pohjalta	-10.2676
mann	-10.2677
▁avaa	-10.268
▁uskoa	-10.2684
▁kahvi	-10.2685
22	-10.269
▁ruotsalainen	-10.2691
qui	-10.2693
▁tunnusta	-10.2693
▁hur	-10.2694
▁ääressä	-10.2695
▁naista	-10.2697
▁vaikutta	-10.2698
hteli	-10.27
▁uuteen	-10.2702
▁täältä	-10.2706
▁hämmästy	-10.2708
▁suhteessa	-10.2708
▁perse	-10.2709
▁lattialle	-10.2709
▁joutuu	-10.2715
gor	-10.2716
ón	-10.2717
▁ger	-10.2718
▁jalat	-10.2719
▁juutalais	-10.2719
▁polvi	-10.272
▁1920	-10.272
▁ruhtinas	-10.272
▁sim	-10.2724
▁taistelun	-10.2727
▁kahdesta	-10.2728
▁synny	-10.273
yhtiön	-10.2737
▁uudet	-10.2737
ranta	-10.2738
▁yrjö	-10.274
▁filosofian	-10.2741
▁lämpötila	-10.2744
▁puku	-10.2748
katu	-10.2748
▁erityisen	-10.2749
▁myytiin	-10.2755
▁shi	-10.2757
▁paavo	-10.2757
▁menetti	-10.2757
▁lahden	-10.2761
▁tekijä	-10.2762
▁sydäme	-10.2765
▁ruo	-10.2767
▁vanki	-10.2768
▁krist	-10.2768
silmä	-10.2768
▁ohjelma	-10.2769
torni	-10.2769
▁yhteistyö	-10.2774
ttäjä	-10.2774
▁pääsee	-10.2774
.--	-10.2776
ohjelma	-10.2776
ou	-10.2778
ellinen	-10.2778
▁2000-	-10.278
▁viron	-10.2786
vaara	-10.2787
▁tyhjä	-10.2789
▁heräsi	-10.2791
mätön	-10.2793
peri	-10.2796
kivi	-10.2797
linja	-10.2801
▁kuukautta	-10.2803
▁lähtenyt	-10.2809
▁kasvonsa	-10.2809
sp	-10.2812
▁mylly	-10.2816
ré	-10.2818
koita	-10.282
odo	-10.2823
▁reaktio	-10.2826
▁kerto	-10.2826
▁valmistunut	-10.2828
▁jouko	-10.2834
▁turhaan	-10.2835
▁kapea	-10.2839
▁saarella	-10.2841
henkilö	-10.2841
▁sopi	-10.2848
▁löydetty	-10.2852
▁erä	-10.2854
▁sc	-10.2856
▁600	-10.2862
▁herätti	-10.2862
▁suosittu	-10.2864
▁peppu	-10.2864
▁saavuttanut	-10.2865
▁toimitusjohtaja	-10.2867
▁syv	-10.2869
▁paljo	-10.2871
▁käveli	-10.2875
kk	-10.2877
▁osoitta	-10.2877
kien	-10.2878
▁itsenäis	-10.2883
▁sopiva	-10.2884
htaa	-10.2885
käsi	-10.2886
▁1954	-10.289
▁luota	-10.2891
▁nimetty	-10.2892
▁isäni	-10.2893
▁avattiin	-10.2893
▁päi	-10.2895
▁juhli	-10.2898
zer	-10.2899
▁26	-10.29
ottelu	-10.29
▁tarkoitukse	-10.2901
▁31.	-10.2905
▁suunnitelma	-10.2906
▁saint	-10.2907
▁hans	-10.2913
▁neljänneksi	-10.2917
▁tyr	-10.2923
▁kyy	-10.2928
selle	-10.2931
▁lapse	-10.2932
▁leiki	-10.2937
▁niille	-10.294
ion	-10.294
▁kahdesti	-10.294
▁ydin	-10.2941
män	-10.2941
-1	-10.2947
ukselle	-10.2948
▁valu	-10.2949
▁sydämme	-10.2953
▁1938	-10.2953
▁tilanne	-10.2957
▁pään	-10.2958
mb	-10.296
ismin	-10.2964
koista	-10.2965
▁kumar	-10.2966
jalka	-10.2967
▁toimittaja	-10.2969
sha	-10.297
impia	-10.2973
lis	-10.2974
▁jumal	-10.2976
▁omaan	-10.2977
iini	-10.2978
▁aamuna	-10.2978
anin	-10.2979
▁yrittää	-10.2986
▁syntyy	-10.2987
▁1930-	-10.2991
way	-10.2993
tyi	-10.2997
▁kera	-10.2998
insä	-10.2998
▁ajattele	-10.3
▁muuan	-10.3008
▁1950	-10.3008
ica	-10.3012
▁katri	-10.3014
▁sammu	-10.3015
▁jääkiekko	-10.3016
▁1946	-10.3016
▁runsa	-10.3017
▁tahto	-10.3018
▁harrasta	-10.3022
▁korja	-10.3022
uuteen	-10.3023
ms	-10.3026
▁ö	-10.3036
▁verho	-10.3036
mmä	-10.3039
▁maksu	-10.3039
▁tyyty	-10.3043
▁poistu	-10.3046
fin	-10.3047
▁muutamat	-10.305
▁ilmestynyt	-10.3051
▁kuuden	-10.3054
vallan	-10.3056
neeseen	-10.3058
▁rikka	-10.3064
▁tarpeeksi	-10.3066
▁28	-10.307
▁harha	-10.3073
▁lake	-10.3074
▁useissa	-10.3075
udella	-10.3079
kilpailussa	-10.3079
▁tammi	-10.3081
laan	-10.3082
▁panna	-10.3082
▁varovasti	-10.3084
sky	-10.3086
illeen	-10.3087
▁sisältä	-10.3088
hö	-10.3089
▁kiinteä	-10.3092
▁toisistaan	-10.3093
ud	-10.3096
▁lailla	-10.3098
▁korkeus	-10.31
ttävät	-10.31
▁tunnettiin	-10.3102
▁mel	-10.3102
▁nähtiin	-10.3106
▁poski	-10.3108
ium	-10.311
nos	-10.3112
hm	-10.3113
▁hui	-10.3114
▁helena	-10.3114
▁piirin	-10.3125
kkeen	-10.3126
▁che	-10.3128
▁kangas	-10.313
isee	-10.3131
ido	-10.3133
▁kirkkoherra	-10.3133
▁nauroi	-10.3143
▁paikkaa	-10.3144
non	-10.3144
lk	-10.3144
▁etteivät	-10.3146
rata	-10.3147
▁records	-10.3147
▁far	-10.3151
uttaa	-10.3151
▁anton	-10.3152
jille	-10.3152
▁ns	-10.3153
▁naama	-10.3153
▁eversti	-10.3154
tellut	-10.3156
▁päättää	-10.3156
lasku	-10.3162
mina	-10.3164
not	-10.3164
▁us	-10.3165
▁alkanut	-10.3168
vah	-10.317
valo	-10.3171
▁neste	-10.3171
▁hyvi	-10.3175
▁muodostuu	-10.3176
▁maailmaa	-10.3176
31	-10.3176
ksesta	-10.3177
kone	-10.3178
hoito	-10.3183
▁itki	-10.3185
▁poliitikko	-10.3186
san	-10.3187
78	-10.3187
▁eteni	-10.3191
▁miekka	-10.3191
ttavia	-10.3194
väri	-10.3199
▁mulle	-10.3203
virta	-10.3206
▁keskuudessa	-10.3208
▁useimmat	-10.3208
▁este	-10.321
etaan	-10.321
kari	-10.3212
mor	-10.3213
▁vuodet	-10.3219
▁kohosi	-10.3219
▁hämärä	-10.3222
▁käske	-10.3224
▁ampuma	-10.3225
▁suihku	-10.3231
nny	-10.3233
▁esim	-10.3233
taistelu	-10.3233
▁tarkka	-10.3233
▁seuraaja	-10.3238
lento	-10.3239
▁jokin	-10.3239
▁90	-10.3243
▁kansainvälinen	-10.3247
▁1955	-10.3248
llin	-10.3248
mistaan	-10.3249
▁kaikkialla	-10.3251
▁kustaa	-10.3256
lus	-10.3257
mie	-10.3258
tieteen	-10.326
lain	-10.3261
cher	-10.3263
▁pystyi	-10.3263
puolue	-10.3267
▁päällikkö	-10.3269
▁tehoilla	-10.3273
ör	-10.3273
▁ajatuksi	-10.3276
▁valkoinen	-10.3284
▁uima	-10.3287
▁itsekseen	-10.3289
rat	-10.3291
rio	-10.3293
▁haja	-10.3299
▁solu	-10.3299
dat	-10.3299
▁hoito	-10.3299
▁muille	-10.33
▁lapin	-10.33
▁seisomaan	-10.3302
▁olavi	-10.3303
katso	-10.3304
llisuutta	-10.3304
poli	-10.3308
▁joen	-10.3308
▁ylpeä	-10.3312
▁kosto	-10.3314
▁annoin	-10.3316
▁kuri	-10.3316
▁jotenkin	-10.3318
▁annettu	-10.3319
▁huomenna	-10.3321
vuori	-10.3322
▁kam	-10.3332
▁kannalta	-10.3333
▁virtaa	-10.3334
▁pai	-10.3336
▁väärin	-10.3337
▁ammu	-10.3339
▁terveys	-10.3342
kkö	-10.3343
▁turha	-10.3349
▁lämpö	-10.335
▁tarjosi	-10.3352
▁luokseen	-10.3352
tyyppi	-10.3353
▁osoittaa	-10.3358
▁neito	-10.3358
99	-10.3359
sesta	-10.3361
▁lukuisia	-10.3361
▁vanhempi	-10.3363
▁kukin	-10.3364
▁kotoisin	-10.3366
ksemme	-10.3368
▁mäki	-10.3372
dal	-10.3374
ls	-10.3376
▁saattanut	-10.3377
▁pahan	-10.3378
mba	-10.338
▁venäjä	-10.3381
▁liikkeelle	-10.3381
▁selitti	-10.3381
▁paran	-10.3382
oiden	-10.3383
27	-10.3387
kyky	-10.3393
▁sara	-10.3397
▁lähettää	-10.3403
▁1961	-10.3404
▁1947	-10.3405
päivän	-10.3406
▁pohjoisessa	-10.3407
▁vaate	-10.3408
teistä	-10.341
▁älkää	-10.3413
▁vastustaja	-10.3416
▁keskeytti	-10.3416
▁puolan	-10.342
▁sellaisia	-10.342
neenä	-10.342
▁hurja	-10.3422
mpää	-10.3424
▁paa	-10.3425
▁yleisö	-10.3426
gh	-10.3427
▁klo	-10.3429
▁taivas	-10.343
▁henge	-10.3431
tamaan	-10.3433
ryhmän	-10.3437
▁palja	-10.3437
▁silmissä	-10.3438
▁arvon	-10.3441
▁ohitse	-10.3447
▁kostea	-10.3449
▁miele	-10.345
▁kome	-10.3453
reiden	-10.3455
▁harvoin	-10.3457
▁taju	-10.3466
▁merkitys	-10.3466
mal	-10.3467
▁ruumis	-10.347
▁asetti	-10.347
tteja	-10.347
▁parissa	-10.3473
▁hum	-10.3474
▁pommi	-10.3475
net	-10.3481
ovin	-10.3481
▁vuosia	-10.3482
▁leima	-10.3484
paikan	-10.3486
koski	-10.3486
▁asunno	-10.3487
▁isänmaa	-10.3492
elä	-10.3494
▁vapa	-10.3496
▁puisto	-10.3496
▁rannikko	-10.3498
▁maalais	-10.3498
▁vol	-10.3502
▁kanadan	-10.3503
▁pela	-10.3506
▁mieleen	-10.3513
▁maissa	-10.3514
▁toteutu	-10.3514
▁organisaatio	-10.3517
28	-10.3519
kymmentä	-10.352
▁hii	-10.352
zz	-10.3522
▁yhdellä	-10.3524
▁thomas	-10.3524
tal	-10.3525
▁kauko	-10.353
▁kuume	-10.3532
ttoman	-10.3532
for	-10.3536
skeli	-10.3537
▁pimeä	-10.3539
rien	-10.354
museo	-10.3541
▁rintama	-10.3544
án	-10.3546
hia	-10.3549
▁musiikkia	-10.3552
▁naura	-10.3554
▁terävä	-10.3555
▁iloinen	-10.3557
▁vihollisen	-10.3557
▁laakso	-10.3561
ora	-10.3562
▁yhteiskunta	-10.3562
▁termi	-10.3564
▁kirjoitettu	-10.3564
▁muodo	-10.3566
▁dia	-10.3567
▁muistu	-10.3568
▁lou	-10.357
of	-10.3574
▁sade	-10.3578
▁kanne	-10.3584
▁tyyne	-10.3586
gra	-10.3587
▁liikke	-10.359
dra	-10.3593
▁huolta	-10.3595
▁toivon	-10.3598
numero	-10.3599
jy	-10.36
▁lee	-10.3604
sista	-10.3605
▁tarvinnut	-10.3605
tuista	-10.3607
▁32	-10.3608
▁kiro	-10.3609
mma	-10.3611
vuus	-10.3611
▁tehdään	-10.3611
▁loistava	-10.3616
▁juttu	-10.3616
▁väkiluku	-10.3619
▁varus	-10.3623
▁ajaa	-10.3625
▁27	-10.3626
▁bor	-10.3628
▁puhunut	-10.3628
ttely	-10.3628
▁silta	-10.3629
cal	-10.363
71	-10.3634
▁odot	-10.3634
▁ilmasto	-10.3635
cia	-10.3635
▁pitkät	-10.3636
▁illan	-10.364
▁silmin	-10.3643
puna	-10.3654
▁aseman	-10.3657
▁vanhus	-10.3661
ottelua	-10.3663
▁henk	-10.3665
▁tarkoitettu	-10.3667
stin	-10.3669
hka	-10.3669
sivät	-10.367
▁marja	-10.367
▁gp	-10.3671
▁oikeassa	-10.3677
▁voimakas	-10.3678
rai	-10.3683
▁q	-10.3684
tilan	-10.3688
▁höyry	-10.369
▁mai	-10.3693
▁iho	-10.3696
▁suojelu	-10.3701
▁valmiiksi	-10.3703
suun	-10.3703
aikana	-10.3709
▁säilynyt	-10.371
rak	-10.3712
▁liiton	-10.3714
▁ruoho	-10.3717
▁joukon	-10.3717
▁raju	-10.3718
▁näytelmä	-10.372
▁vä	-10.372
▁osoitti	-10.372
▁uhka	-10.3723
cho	-10.3724
▁ojensi	-10.3729
▁hall	-10.3729
▁jättä	-10.3733
▁jukka	-10.3733
tic	-10.3734
▁iski	-10.3735
▁kyynel	-10.3736
▁varmaankin	-10.3736
▁väsy	-10.3741
▁lauloi	-10.3742
▁myi	-10.3743
▁lupa	-10.3743
▁mag	-10.3752
▁rat	-10.3753
▁dar	-10.3753
▁kättä	-10.3754
wat	-10.3754
▁kunnolla	-10.3755
▁vihittiin	-10.3755
kkää	-10.3756
▁rovasti	-10.3756
▁väärä	-10.3757
▁you	-10.3757
▁ehtinyt	-10.3759
▁outo	-10.376
▁päästi	-10.376
ding	-10.3762
off	-10.3764
käyttö	-10.3764
▁kauniin	-10.3768
▁lyhyen	-10.3768
▁kirkossa	-10.3769
toa	-10.3771
mitta	-10.3772
▁wal	-10.3775
▁katsoa	-10.3778
nor	-10.3783
ellut	-10.3785
köön	-10.3787
▁lensi	-10.3787
▁nousta	-10.3788
▁muodostui	-10.3789
29	-10.3791
▁2008.	-10.3791
▁lyhy	-10.3793
ander	-10.3793
▁1951	-10.3795
mmalla	-10.3796
▁maksaa	-10.3799
*	-10.38
kainen	-10.3802
mit	-10.3802
tsu	-10.3804
puolelle	-10.3805
▁miehi	-10.381
▁muodossa	-10.3811
▁ravinto	-10.3811
39	-10.3814
32	-10.3815
▁siirty	-10.3816
heimo	-10.3817
opin	-10.3818
▁ham	-10.3822
▁1957	-10.3823
▁puun	-10.3829
▁sup	-10.3831
▁lukea	-10.3835
▁nuoret	-10.3838
▁eipä	-10.3841
telee	-10.3842
▁harry	-10.3844
ele	-10.3844
llu	-10.3846
▁vilja	-10.3847
96	-10.3848
▁puheli	-10.3851
▁kutsuttu	-10.3852
▁piir	-10.3853
▁villa	-10.3854
▁suola	-10.3854
kilpailu	-10.3857
gren	-10.3858
▁jäljellä	-10.3864
▁kakkos	-10.3865
▁jär	-10.3866
miksi	-10.3866
▁pitivät	-10.3869
1-	-10.3872
▁maajoukkueessa	-10.3875
com	-10.388
▁kysyin	-10.3892
▁kului	-10.3898
▁mielessä	-10.3899
▁menestys	-10.3901
▁nimet	-10.3905
▁nimettiin	-10.3908
▁pitkälle	-10.3912
kulttuuri	-10.3912
▁toimia	-10.3914
toveri	-10.3915
työn	-10.3915
uksensa	-10.3915
▁sulki	-10.3915
▁bel	-10.3916
▁vetää	-10.3917
kerta	-10.3917
▁1930	-10.3919
▁1958	-10.3919
▁miltei	-10.3919
▁asukkaat	-10.392
liike	-10.3921
▁kuvan	-10.3923
tuotanto	-10.3926
▁järjestö	-10.3926
▁demo	-10.3926
▁kerä	-10.3927
kunnasta	-10.3928
kro	-10.3929
▁tilasto	-10.3933
▁viljely	-10.3935
▁iv	-10.3936
udessa	-10.3939
▁der	-10.3939
▁mini	-10.3941
▁gri	-10.3943
▁loma	-10.3944
▁pysyvä	-10.3944
stra	-10.3945
ytti	-10.3945
▁liittyy	-10.3947
▁intian	-10.395
▁vastasin	-10.3952
▁naisia	-10.3954
stru	-10.3956
▁asiassa	-10.3957
▁puutarha	-10.396
bor	-10.3961
▁brittiläinen	-10.3961
▁mielellään	-10.3964
ttama	-10.3968
▁hyl	-10.3969
▁tunnetuksi	-10.3969
▁tilan	-10.3971
▁1953	-10.3975
kauppa	-10.3978
▁lohko	-10.3979
oikeus	-10.3982
raha	-10.3987
▁sauna	-10.3987
▁1928	-10.3989
23	-10.3991
▁yht	-10.3994
▁selvää	-10.3996
▁fri	-10.3998
kal	-10.4002
▁aleksandr	-10.4003
▁tiesin	-10.4003
kilpailun	-10.4003
avan	-10.4005
ittain	-10.4006
▁ruokaa	-10.4006
ministeri	-10.4007
neensa	-10.4011
kaus	-10.4013
▁muodostavat	-10.4016
▁eero	-10.4018
isessä	-10.4021
enne	-10.4026
▁national	-10.4029
▁suojaa	-10.4029
ilin	-10.4033
▁taloon	-10.4035
▁/	-10.4036
▁annettiin	-10.4036
▁levisi	-10.4037
▁she	-10.4039
▁iske	-10.4041
▁tytöt	-10.4041
▁pariisin	-10.4044
▁yhdysvaltojen	-10.4045
▁yläpuolella	-10.4046
▁espanja	-10.4049
lasta	-10.4051
ev	-10.4054
kkoja	-10.4056
▁tervehti	-10.4058
▁voittaa	-10.4059
▁operaatio	-10.4062
käs	-10.4063
ähti	-10.4066
▁heilu	-10.4068
▁pöytä	-10.4069
toiminta	-10.407
▁pyöreä	-10.4073
▁1932	-10.4074
▁jäivät	-10.4076
▁ilmesty	-10.4076
neeksi	-10.4077
33	-10.4083
▁pylly	-10.4088
▁ilmaan	-10.4091
▁cal	-10.4092
▁polve	-10.4093
▁gre	-10.4094
jista	-10.4095
pon	-10.4096
▁ikävä	-10.4097
▁punainen	-10.4098
▁kädestä	-10.4102
▁vis	-10.4102
▁kaupunkia	-10.4103
tteko	-10.4107
▁terä	-10.4109
▁rauhoit	-10.411
▁valmistaa	-10.411
kui	-10.4114
huoneen	-10.4116
▁pid	-10.4116
▁fre	-10.4117
▁tii	-10.412
tetut	-10.4122
▁rasva	-10.4123
ric	-10.4123
päivänä	-10.4124
▁pel	-10.4125
▁muo	-10.4128
päällikkö	-10.4129
▁tahdot	-10.413
▁selittää	-10.413
▁aiheutti	-10.4131
▁kuukausi	-10.4132
lund	-10.4132
▁heimoon	-10.4132
toihin	-10.4139
▁moskovan	-10.4142
▁usea	-10.4142
▁elokuvissa	-10.4144
syy	-10.4148
▁sisällissodan	-10.4158
▁fran	-10.4159
▁osana	-10.4159
▁edestakaisin	-10.4163
▁kärki	-10.4166
▁etelässä	-10.4168
▁soittaa	-10.4168
mari	-10.4168
ttuna	-10.4169
▁tietoja	-10.4171
▁edusta	-10.4176
97	-10.4178
ily	-10.4178
▁kielellä	-10.4183
▁sau	-10.4184
▁maailmansodassa	-10.4187
▁1916	-10.4187
▁syyt	-10.4189
▁vastannut	-10.419
▁leh	-10.419
▁kyrpä	-10.4198
▁2009.	-10.4201
tetun	-10.4205
kuri	-10.4207
▁rie	-10.4208
▁kaupunginosa	-10.4209
▁pelkäsi	-10.421
▁harva	-10.4212
26	-10.4214
olle	-10.4214
▁jaksa	-10.4215
▁ensiksi	-10.4216
skele	-10.4216
leen	-10.4221
▁45	-10.4222
▁missään	-10.4225
ksessa	-10.4225
▁1959	-10.4229
▁amerikan	-10.423
▁autio	-10.4232
▁oikean	-10.4234
▁harmi	-10.4236
▁suomalaisten	-10.4246
▁kohtasi	-10.4247
▁kestä	-10.4247
▁synk	-10.4254
jäsen	-10.4255
▁kuorma	-10.4257
▁poly	-10.4258
form	-10.4258
▁1937	-10.4259
▁suosio	-10.4263
▁opiskelija	-10.4264
▁filosofi	-10.4265
iska	-10.4266
▁yönä	-10.4266
▁kenttä	-10.4266
kokoelma	-10.427
▁tukka	-10.4271
kii	-10.4271
▁leena	-10.4274
▁tutustu	-10.4275
▁puheen	-10.4276
ow	-10.4277
▁yksinäis	-10.4279
suu	-10.4281
▁monien	-10.4282
perin	-10.4293
▁veto	-10.4296
▁kitaristi	-10.4297
▁tel	-10.4297
▁joitakin	-10.4299
▁kg	-10.43
▁itsestään	-10.4302
▁rohke	-10.4303
holm	-10.4303
▁enimmäkseen	-10.4304
▁seka	-10.4305
alainen	-10.4306
▁seuraavaksi	-10.4308
▁odotti	-10.4309
▁jakoi	-10.4309
cin	-10.4311
▁kirjoittama	-10.4312
▁kuolemaan	-10.4312
▁urallaan	-10.4314
▁ajatellut	-10.4317
▁kaivo	-10.4317
▁ilmoi	-10.4319
▁hirveä	-10.4322
die	-10.4323
▁pohjoiseen	-10.4323
▁tehneet	-10.4325
▁rakka	-10.4325
34	-10.433
▁edustaja	-10.4331
iso	-10.4332
eu	-10.4336
▁alkunsa	-10.4337
▁muna	-10.434
▁voit	-10.4341
▁tarkasti	-10.4341
laiseen	-10.4341
▁piha	-10.4345
▁vaihtoehto	-10.4345
eille	-10.4348
▁välinen	-10.4348
laki	-10.435
▁vieraan	-10.4358
▁rakentaa	-10.436
▁1931	-10.436
▁lope	-10.4365
▁vaimon	-10.4367
▁sito	-10.4369
▁live	-10.437
▁viipurin	-10.4372
▁koriste	-10.4373
▁ilmiö	-10.4373
ac	-10.4374
▁koneen	-10.4376
▁ystävänsä	-10.438
ec	-10.4382
▁käytiin	-10.4383
▁des	-10.4389
▁teoksia	-10.439
▁homo	-10.4391
▁italia	-10.4391
▁kyseessä	-10.4391
vuoden	-10.4391
▁menivät	-10.4403
▁kuoltua	-10.4403
lov	-10.4404
jaksi	-10.4407
tavat	-10.4407
▁inter	-10.4413
▁puke	-10.4413
▁olevaa	-10.4414
mel	-10.4415
▁karjalan	-10.4415
▁nouse	-10.4416
puolen	-10.4417
▁aleksanteri	-10.4418
▁rip	-10.4418
ileva	-10.4418
▁soitto	-10.4421
▁it	-10.4423
▁muutettiin	-10.4429
▁tiuk	-10.4431
▁roman	-10.4432
▁nähdessään	-10.4432
▁haki	-10.4433
▁maatalous	-10.4434
▁tarkoi	-10.4436
▁sou	-10.4437
▁syl	-10.4437
▁ystäväni	-10.4439
evä	-10.4443
utua	-10.4444
▁ruskea	-10.4447
▁arka	-10.445
▁sisko	-10.4451
toin	-10.4452
▁berg	-10.4454
▁laura	-10.4455
▁paikkaan	-10.4458
ui	-10.4461
▁vähintään	-10.4462
alin	-10.4462
81	-10.4463
▁afrikan	-10.4463
▁lontoon	-10.4464
▁omalla	-10.4464
▁kaunista	-10.4469
▁š	-10.4472
▁tah	-10.4475
iltaan	-10.4476
▁tavallista	-10.4478
pii	-10.4478
▁muutoin	-10.4478
▁poistui	-10.4484
▁marssi	-10.4486
▁ren	-10.4489
▁ap	-10.4491
▁suomea	-10.4492
▁setä	-10.4492
▁venäläinen	-10.4492
▁like	-10.4495
▁tärkein	-10.4497
jään	-10.4498
liigan	-10.4502
▁kumo	-10.4504
▁oo	-10.4506
▁kauhistu	-10.4506
amerikassa	-10.4507
▁voimaa	-10.4509
▁cup	-10.451
▁nord	-10.4513
▁frank	-10.4513
▁rake	-10.4515
▁poikaa	-10.4516
▁kelta	-10.4516
ttuja	-10.4519
▁elinympäristö	-10.4521
▁vastaava	-10.4524
▁pääsarja	-10.4525
▁tol	-10.4525
▁sopimus	-10.4527
elokuvi	-10.4529
▁orgasmin	-10.453
est	-10.4532
▁vetä	-10.4533
▁verrattuna	-10.4535
▁joudu	-10.4536
▁maija	-10.4538
▁kiven	-10.4539
▁heiko	-10.4541
▁kisoissa	-10.4543
▁lounais	-10.4545
tessa	-10.4547
miesten	-10.4549
ity	-10.455
▁todennäköisesti	-10.4552
koulun	-10.4553
loista	-10.4561
▁kaatui	-10.4561
▁ton	-10.4565
▁kilpailussa	-10.4569
kaisi	-10.4569
▁sido	-10.4571
all	-10.4578
▁emä	-10.4578
▁valtasi	-10.4578
▁matkusta	-10.4579
▁vanhat	-10.458
sali	-10.4582
ez	-10.4588
mene	-10.4589
▁ikinä	-10.4591
▁sydäntä	-10.4593
▁enkeli	-10.4596
▁haen	-10.4597
maali	-10.4597
uteen	-10.46
sco	-10.46
▁ras	-10.46
▁elämään	-10.4602
▁pilvi	-10.4604
▁muuri	-10.4605
▁lääke	-10.4605
vaihe	-10.4607
art	-10.4608
▁jäsenenä	-10.4612
pri	-10.4614
▁uskonto	-10.4614
inta	-10.4617
mpa	-10.4617
▁osin	-10.4617
▁pitämään	-10.4618
▁stra	-10.4619
sano	-10.462
▁sukulais	-10.462
47	-10.4623
▁palata	-10.4623
▁vaikutuksen	-10.4624
lé	-10.4625
▁paita	-10.4626
▁luonno	-10.4627
ivi	-10.4629
▁sielun	-10.4629
▁ranskalais	-10.463
▁puhuu	-10.4632
▁porta	-10.4633
het	-10.4633
▁mau	-10.4633
▁niilo	-10.4635
liikkeen	-10.4641
▁saavu	-10.4641
kylän	-10.4642
field	-10.4642
▁alkuun	-10.4644
▁välin	-10.4644
▁kuvattu	-10.4649
▁hyökkäys	-10.4649
sun	-10.465
▁vuoren	-10.4653
toon	-10.4654
▁vaike	-10.4655
▁kitara	-10.4657
ija	-10.4659
yydestä	-10.4659
▁tode	-10.4659
liha	-10.4659
ier	-10.466
▁reuna	-10.4661
teko	-10.4662
▁toimintansa	-10.4668
miehenä	-10.4669
▁piispaksi	-10.4671
▁hart	-10.4671
pia	-10.4672
pala	-10.4672
▁purje	-10.4673
▁vaatii	-10.4674
otti	-10.4674
pito	-10.4674
ben	-10.4676
▁otettu	-10.4678
▁myrky	-10.4682
ves	-10.4684
▁kehittyi	-10.4685
fu	-10.4689
▁tekisi	-10.4693
iv	-10.4694
▁pietarin	-10.4695
▁miehelle	-10.4698
▁ylioppilaaksi	-10.47
ejä	-10.4701
lliseen	-10.4702
▁saadakseen	-10.4704
▁oike	-10.4706
▁hakemaan	-10.4706
▁virallisesti	-10.4706
ikon	-10.4707
lii	-10.471
▁voihki	-10.4711
▁panssari	-10.4714
raja	-10.4714
▁suuressa	-10.4714
▁kohd	-10.4715
▁aatelis	-10.4717
▁seutu	-10.4718
▁edu	-10.4718
▁2007.	-10.4719
▁rakkauden	-10.4723
▁kyllin	-10.4724
▁viedä	-10.4725
▁neuvottelu	-10.4727
▁ivan	-10.4727
isyys	-10.4727
▁kantoi	-10.4728
oihin	-10.473
▁myönsi	-10.473
roi	-10.4737
tavan	-10.4737
▁ympärilleen	-10.4744
ihinsa	-10.4754
para	-10.4761
▁epätoivo	-10.4763
ttomasti	-10.4768
kautta	-10.4772
ruu	-10.4773
▁päätös	-10.4774
▁vapautta	-10.4774
▁etelään	-10.4775
▁hyvältä	-10.4775
▁musti	-10.4775
▁ruumi	-10.4775
▁1700-	-10.4776
▁energia	-10.4777
pelaaja	-10.478
▁orgasmi	-10.478
alus	-10.4783
▁teen	-10.4785
▁läheise	-10.4789
▁vanhoja	-10.479
▁lähtivät	-10.4793
▁näihin	-10.4795
▁kumpikin	-10.4796
▁hiili	-10.4796
▁bio	-10.4799
väki	-10.48
▁epäily	-10.4802
▁ammattilais	-10.4803
▁2006.	-10.4804
▁kansainvälise	-10.4807
▁tuuma	-10.4811
▁otto	-10.4812
▁1920-	-10.4815
utensa	-10.4815
▁paljasta	-10.4815
keita	-10.4816
kuo	-10.4816
▁kanava	-10.4817
▁fredrik	-10.482
▁1934	-10.4821
82	-10.4823
▁love	-10.4824
▁ruotsalais	-10.4826
kkaasti	-10.4827
▁debytoi	-10.4835
▁simon	-10.4839
▁perustuva	-10.484
▁tehden	-10.4841
▁näyttä	-10.4842
▁mikro	-10.4846
isuuden	-10.4846
▁parhaimmillaan	-10.4851
▁maiden	-10.4852
▁bla	-10.4852
▁hallitsi	-10.4853
▁indi	-10.4855
llisuus	-10.4858
▁vanhaa	-10.4861
▁muuttunut	-10.4862
▁saamaan	-10.4864
▁syynä	-10.4864
kalla	-10.4865
aihe	-10.4865
amme	-10.4866
▁tykki	-10.4866
▁tuhoa	-10.487
▁järjestä	-10.4871
▁tultua	-10.4871
issään	-10.4873
▁murhe	-10.4876
▁projekti	-10.4877
86	-10.4879
puolueen	-10.4881
▁1927	-10.4882
iselta	-10.4883
nainen	-10.4885
▁lava	-10.4888
▁hinta	-10.4888
▁tyttärensä	-10.4888
▁toteutta	-10.4889
▁alkuperäinen	-10.4889
▁kertonut	-10.489
▁osasi	-10.4892
▁haluaa	-10.4896
▁porvari	-10.4897
lliseksi	-10.4898
▁elsa	-10.4898
▁hyviä	-10.4901
98	-10.4905
missä	-10.4907
▁jazz	-10.4909
luvulle	-10.4911
▁esiintymis	-10.4912
▁nostaa	-10.4913
▁poro	-10.4914
▁up	-10.4918
▁miljoona	-10.4919
▁tuntea	-10.4925
▁vesille	-10.4926
▁läsnä	-10.4927
▁lukien	-10.4927
▁varasto	-10.4927
▁puristi	-10.4927
ttäen	-10.4929
▁teräs	-10.493
▁tunnetu	-10.493
▁music	-10.493
konsert	-10.4933
▁säännö	-10.4936
▁pö	-10.4936
kalle	-10.4937
▁salaa	-10.4938
lee	-10.4941
▁televisiosarja	-10.4942
stel	-10.4942
▁päinvastoin	-10.4943
▁hellä	-10.4951
▁tää	-10.4952
kkia	-10.4955
talon	-10.4956
vier	-10.4957
▁semmoinen	-10.4958
▁lang	-10.496
▁kullini	-10.496
▁pello	-10.4963
%	-10.4964
▁innostu	-10.4965
▁kou	-10.4966
▁fin	-10.4966
▁thor	-10.4966
▁luola	-10.4968
▁onnea	-10.4968
lehd	-10.4969
ttavaksi	-10.4971
cle	-10.4972
▁yötä	-10.4974
▁sua	-10.4974
▁käytettävä	-10.4976
▁seikkailu	-10.4977
▁all	-10.4979
amerikan	-10.4979
▁antama	-10.498
▁perustivat	-10.4983
▁sanna	-10.4988
▁sodassa	-10.4989
▁kuudes	-10.499
▁ovelle	-10.499
73	-10.4991
▁piru	-10.4994
kri	-10.4996
▁käsittely	-10.4998
▁liiga	-10.4999
▁suositu	-10.5001
▁toive	-10.5001
▁näytä	-10.5004
▁sisälsi	-10.5005
▁1935	-10.5005
▁tutkija	-10.5006
▁pystyssä	-10.5006
uma	-10.501
pos	-10.5012
▁oudo	-10.5015
▁miehistö	-10.5018
▁kaikilla	-10.502
▁tekevät	-10.5021
▁massa	-10.5022
▁ohjaaja	-10.5023
kseksi	-10.5027
ketju	-10.5029
▁kamp	-10.5029
▁seurata	-10.5031
▁siviili	-10.5035
▁vastuu	-10.5036
kosta	-10.5037
▁onnellinen	-10.5039
▁lontoossa	-10.5039
▁20-	-10.5039
▁kartanon	-10.5043
▁2010.	-10.5047
▁lepo	-10.505
ting	-10.5054
ckin	-10.5054
cen	-10.5054
▁lauta	-10.5055
▁erkki	-10.5061
▁""	-10.5061
pö	-10.5063
▁saarna	-10.5065
▁venäläis	-10.5065
▁tapana	-10.5067
matonta	-10.5068
▁tapio	-10.507
llisiä	-10.5073
▁herrat	-10.5073
▁juniori	-10.5074
alueeseen	-10.5074
uksi	-10.5076
▁vyö	-10.5076
▁jään	-10.5076
dissa	-10.5076
neista	-10.5077
▁pä	-10.5079
▁sh	-10.508
▁aiheuttama	-10.5082
▁kristillis	-10.5083
▁kli	-10.5086
▁kappaleita	-10.5087
▁oikeutta	-10.5089
▁haara	-10.5089
kello	-10.5089
▁paikassa	-10.5091
▁tanskan	-10.5093
▁monissa	-10.5094
▁henkilöä	-10.5095
▁myönnettiin	-10.5098
halu	-10.5098
▁palveluksessa	-10.5099
▁kasvanut	-10.5099
▁jalkaa	-10.5102
▁kunnioit	-10.5103
▁ratsasta	-10.5105
iitti	-10.5107
liikenne	-10.5108
▁tam	-10.5109
▁2011.	-10.511
vani	-10.5111
▁tunnetuin	-10.5113
▁julkaissut	-10.5113
▁arkkipiispa	-10.5113
▁edestä	-10.5114
▁ok	-10.512
92	-10.5121
▁pelissä	-10.5123
▁katsele	-10.5123
▁valmistu	-10.5125
tehdas	-10.5125
▁mahdollisimman	-10.5129
95	-10.5131
maatti	-10.5131
▁muodostama	-10.5133
tyttö	-10.5138
▁australian	-10.5142
▁mieheni	-10.5143
▁ääneen	-10.5145
▁lämpimä	-10.5148
▁parta	-10.515
▁kos	-10.5157
öö	-10.5162
lintu	-10.5163
▁pyytä	-10.5163
▁kertoja	-10.5163
▁henry	-10.5164
dor	-10.5164
sar	-10.5164
▁nähty	-10.5166
▁hehtaaria	-10.5167
tekijä	-10.5167
tre	-10.5168
▁dis	-10.5171
jumala	-10.5171
▁150	-10.5171
▁cas	-10.5171
kenttä	-10.5172
▁valittu	-10.5173
▁ihastu	-10.5174
▁riensi	-10.5174
vänsä	-10.5177
▁muodosta	-10.5177
▁valon	-10.5178
▁taito	-10.5178
malle	-10.5181
▁tappa	-10.5182
▁perään	-10.5185
▁mitat	-10.5186
▁kehitti	-10.5186
▁toimisto	-10.5187
maailma	-10.5187
▁maisteri	-10.5189
velj	-10.5191
▁santa	-10.5193
ung	-10.5195
ota	-10.5196
isuuteen	-10.5197
▁kerrotaan	-10.5198
▁vastaanotto	-10.5201
▁muutos	-10.5202
▁näyttely	-10.5203
▁rakastaa	-10.5206
▁hetkisen	-10.5206
▁suuhunsa	-10.5207
luvuilla	-10.5207
▁tiedot	-10.5208
▁joseph	-10.5208
▁rautatieasema	-10.5211
89	-10.5212
▁näissä	-10.5212
▁not	-10.5213
wer	-10.5215
etu	-10.5216
▁sanaakaan	-10.5216
▁nä	-10.5217
▁dra	-10.522
▁katosi	-10.5221
▁palkittiin	-10.5224
▁inno	-10.5227
▁palkka	-10.5228
ksesi	-10.5232
▁joukkojen	-10.5238
77	-10.5238
▁1924	-10.524
▁suun	-10.524
▁perille	-10.5244
▁pelastaa	-10.5244
▁kaatu	-10.5244
▁haka	-10.5246
▁purjehti	-10.5251
▁iha	-10.5253
▁rotu	-10.5255
▁keräsi	-10.5255
liini	-10.5256
▁kasvoja	-10.5256
▁pariisissa	-10.5258
▁apulais	-10.526
▁syntymä	-10.526
▁kädellään	-10.5262
▁kaar	-10.5263
stettu	-10.5266
immat	-10.5268
salo	-10.5268
▁1933	-10.5271
▁varm	-10.5274
▁tein	-10.5277
▁veteen	-10.5278
▁vastusta	-10.5279
ttelemaan	-10.5282
▁istuu	-10.5284
▁tuulen	-10.5287
qvist	-10.5287
ryn	-10.5288
▁koste	-10.5292
▁alkoholi	-10.5294
▁liigan	-10.5296
▁helppo	-10.5299
▁edessään	-10.5302
jet	-10.5303
▁kissa	-10.5307
ttaren	-10.531
▁nuoli	-10.5311
▁tappaa	-10.5311
▁kommunisti	-10.5312
▁juhani	-10.5315
▁mais	-10.5317
▁viikko	-10.5319
▁pystyyn	-10.5322
muksen	-10.5324
pei	-10.5326
▁päättänyt	-10.5326
▁onneksi	-10.5327
puku	-10.5328
▁kurja	-10.5328
ttavaa	-10.5328
onen	-10.5333
▁materiaali	-10.5333
▁jack	-10.5336
▁musiikkivideo	-10.5336
▁hauska	-10.5336
▁sosialisti	-10.5336
▁rupea	-10.5336
▁pakeni	-10.5338
▁täytti	-10.534
mpänä	-10.5342
▁eh	-10.5343
▁sellaisen	-10.5345
▁lämmin	-10.5348
▁erottaa	-10.5348
▁painaa	-10.5349
ttaisiin	-10.535
▁ylitse	-10.5351
usko	-10.5351
▁tieteell	-10.5353
logi	-10.5355
▁vähe	-10.5355
▁sand	-10.5357
▁merkitsee	-10.5358
▁nimeksi	-10.5366
▁lue	-10.537
tten	-10.5374
kuin	-10.5375
▁lempeä	-10.5379
▁merkin	-10.5379
▁bas	-10.538
55	-10.5381
teinen	-10.5382
▁useimmiten	-10.5383
▁järjestetty	-10.5383
tyksi	-10.5384
▁vaivaa	-10.5384
zar	-10.5388
▁palkinnon	-10.5389
▁aut	-10.539
▁etkö	-10.539
▁vedin	-10.5391
▁levyn	-10.5395
aseen	-10.5396
isenä	-10.5397
▁puolivälissä	-10.5399
vanh	-10.54
–1	-10.54
▁ampu	-10.5401
▁im	-10.5403
▁pelattiin	-10.5403
ved	-10.5403
see	-10.5404
kuntien	-10.5408
eillä	-10.5411
juo	-10.5414
cker	-10.5414
▁voisin	-10.5415
▁onnen	-10.5418
▁piirissä	-10.542
▁haju	-10.542
▁kaikin	-10.5428
▁tavoitteena	-10.543
▁luovu	-10.543
▁mielestään	-10.5431
ällä	-10.5432
▁kahdella	-10.5432
▁29	-10.5433
▁aloitettiin	-10.5433
▁kädellä	-10.5433
sien	-10.5435
stettiin	-10.5436
älä	-10.5437
▁kuvaus	-10.5438
▁rah	-10.5439
▁rohkea	-10.5439
▁kuninkaallisen	-10.5442
kanta	-10.5444
▁levitti	-10.545
▁pitki	-10.545
▁kate	-10.5451
▁tak	-10.5453
▁kansainvälisen	-10.5454
▁mustat	-10.5455
▁ryhmän	-10.5455
▁otan	-10.5456
38	-10.5456
▁paranta	-10.5459
lat	-10.5459
sää	-10.5461
▁pelk	-10.5463
▁maine	-10.5465
▁2014.	-10.5467
mos	-10.5468
▁useiden	-10.5468
45	-10.5469
teoria	-10.547
▁osu	-10.5471
▁tuote	-10.5471
▁jä	-10.5472
▁cd	-10.5472
koti	-10.5473
ppä	-10.5475
▁minuutin	-10.5476
▁komentaja	-10.5477
isistä	-10.5478
▁töitä	-10.5481
ttaminen	-10.5482
▁valtava	-10.5483
▁virhe	-10.5484
▁selville	-10.549
▁til	-10.549
▁puhetta	-10.5492
joista	-10.5496
▁lännessä	-10.5497
▁sängylle	-10.5497
hor	-10.5499
93	-10.55
▁nähtävästi	-10.55
osissa	-10.5502
▁huonosti	-10.5506
▁meno	-10.5509
uudessa	-10.5509
hat	-10.551
▁lattia	-10.551
kunnat	-10.5512
▁valtaan	-10.5516
sur	-10.5518
▁valmiina	-10.5518
88	-10.552
▁tär	-10.5521
eiksi	-10.5522
▁col	-10.5522
ikkaa	-10.5524
▁valmistettu	-10.5524
▁spermaa	-10.5525
.	-10.5528
mestaruus	-10.5529
▁tietty	-10.5533
▁jyväskylän	-10.554
jakso	-10.5542
merkin	-10.5545
▁fla	-10.5546
rian	-10.5546
▁voineet	-10.5547
ttyään	-10.5547
▁ya	-10.555
ore	-10.5551
runo	-10.5551
▁keskusta	-10.5551
–3	-10.5553
▁th	-10.5556
▁make	-10.5558
▁keh	-10.5559
▁toivoi	-10.5561
▁intiaani	-10.5562
▁loput	-10.5563
ller	-10.5566
▁king	-10.5566
▁kasa	-10.5567
kra	-10.557
▁ts	-10.5571
kuntaan	-10.5572
▁katseensa	-10.5574
▁vapaasti	-10.5578
▁om	-10.5581
▁lähestyi	-10.5581
▁mitali	-10.5586
▁lasti	-10.5589
▁pitkiä	-10.559
▁sydämen	-10.5592
▁rikki	-10.5595
▁englantilainen	-10.5596
▁kuohu	-10.5598
rouva	-10.5599
▁ylioppilas	-10.5599
▁sopii	-10.56
ea	-10.5601
musiikki	-10.5605
▁kolmesta	-10.5607
▁kohde	-10.5608
▁rakennuksen	-10.5609
▁nousivat	-10.5611
▁1929	-10.5611
kaali	-10.5612
▁täydellisesti	-10.5613
▁haave	-10.5615
mitali	-10.5615
▁näkynyt	-10.5616
ite	-10.562
▁laulaa	-10.5623
▁tuttu	-10.5631
▁maajoukkue	-10.5634
▁sarjakuva	-10.5636
▁jollei	-10.5636
bon	-10.5637
▁tunti	-10.5637
▁katsella	-10.5638
▁pääosa	-10.5638
tinen	-10.5639
isempi	-10.564
▁kohtaus	-10.5643
▁mielensä	-10.5645
linna	-10.5651
isellä	-10.5652
nel	-10.5653
▁työhön	-10.5653
▁vin	-10.5654
los	-10.5654
ttia	-10.5657
▁valli	-10.5659
time	-10.566
▁1914	-10.5661
▁oscar	-10.5662
65	-10.5663
▁japani	-10.5669
▁sekin	-10.5669
▁huomattava	-10.567
▁mukava	-10.5672
43	-10.5673
▁31	-10.5674
▁vär	-10.5674
bus	-10.5676
▁muodostu	-10.5677
▁kata	-10.5677
up	-10.5679
▁korvaa	-10.5679
▁omassa	-10.5682
72	-10.5683
▁rou	-10.5685
▁idässä	-10.5691
▁tukea	-10.5694
▁kuvernööri	-10.5696
▁raaka	-10.5696
kkoon	-10.5697
▁näyttivät	-10.57
6.	-10.5705
▁sukua	-10.5706
▁japanilais	-10.5707
▁järjestää	-10.5707
teista	-10.5707
nneksi	-10.5709
▁ravi	-10.571
▁sanomalehti	-10.5711
▁mahdotonta	-10.5713
▁piirikunta	-10.5713
▁alkuperä	-10.5713
▁kaarlo	-10.5716
▁vallassa	-10.5718
hko	-10.5722
kkaita	-10.5725
▁elli	-10.5726
▁tiina	-10.5726
▁1949	-10.5727
▁näillä	-10.573
▁italialainen	-10.573
▁vihollis	-10.5732
ike	-10.5733
▁katsoen	-10.5733
▁pelko	-10.5733
▁idea	-10.5736
▁suunnittelema	-10.5736
▁aluetta	-10.5737
tkin	-10.5738
▁west	-10.574
▁kuolleen	-10.5741
dar	-10.5742
paikkaa	-10.5743
tieteilijä	-10.5744
▁nau	-10.5744
▁tuottama	-10.5747
puolella	-10.575
▁mär	-10.575
bia	-10.5758
opi	-10.5762
mielinen	-10.5764
▁ihanaa	-10.5764
▁yöllä	-10.5764
suus	-10.5765
▁joukkuetta	-10.5766
iuksen	-10.577
▁kahdessa	-10.5778
hau	-10.5778
▁voida	-10.5778
ph	-10.5779
▁alo	-10.5779
nosta	-10.5781
▁oppia	-10.5792
▁olihan	-10.5794
▁eräässä	-10.5794
▁vieraili	-10.5795
jensa	-10.5796
▁nuorta	-10.5797
▁alaspäin	-10.5798
osan	-10.58
▁tyk	-10.5801
▁kasvatti	-10.5802
▁teoria	-10.5806
▁koillis	-10.5806
▁pelastu	-10.5807
▁kauvan	-10.5807
gue	-10.5808
▁herää	-10.5811
▁johonkin	-10.5814
▁kruunun	-10.5816
suomalais	-10.5816
mmiksi	-10.5818
▁mega	-10.582
▁peili	-10.5821
nimisen	-10.5822
▁vastata	-10.5824
juoksu	-10.5824
▁pesu	-10.5826
main	-10.5831
sit	-10.5832
▁kanada	-10.5833
▁järjestelmä	-10.5833
▁sub	-10.5834
▁las	-10.5835
sille	-10.5836
01	-10.5837
▁py	-10.5837
▁real	-10.5838
▁uskoi	-10.5841
48	-10.5843
▁1925	-10.5845
▁jaettu	-10.5846
yhdistys	-10.5848
yrityks	-10.5849
▁koki	-10.585
ang	-10.5852
▁suunni	-10.5854
ute	-10.5856
age	-10.5857
▁kulla	-10.5859
▁provinssi	-10.5861
▁saattue	-10.5861
läis	-10.5862
mmalta	-10.5864
▁oksa	-10.5864
▁will	-10.5866
▁sii	-10.5869
▁ut	-10.5871
▁ano	-10.5874
▁kirjoja	-10.5876
▁kori	-10.5876
▁mestaruus	-10.588
▁haasta	-10.5884
▁edellis	-10.5887
▁tuhat	-10.5888
▁kävivät	-10.5891
cc	-10.5891
▁lan	-10.5892
imi	-10.5893
▁juho	-10.5897
huoneeseen	-10.5898
▁jän	-10.59
▁vale	-10.59
▁lähetettiin	-10.5901
▁radan	-10.5904
▁mainitaan	-10.5904
▁sydämensä	-10.5906
▁meistä	-10.5909
▁joutuivat	-10.5914
▁ros	-10.5915
kalta	-10.5925
84	-10.5926
83	-10.5929
▁1912	-10.593
teesta	-10.5933
▁unta	-10.5936
landin	-10.5939
vana	-10.5939
▁2005.	-10.5941
▁vetäyty	-10.5943
▁tyttären	-10.5945
▁divisioona	-10.5945
imman	-10.5946
ttamalla	-10.5949
yksen	-10.5949
tola	-10.5949
▁ylöspäin	-10.5949
▁2012.	-10.5951
▁odotta	-10.5951
▁kaup	-10.5953
yytensä	-10.5954
▁aisti	-10.5955
▁taisteli	-10.5957
kirkko	-10.5959
▁muutkin	-10.5962
▁majuri	-10.5964
▁sto	-10.5965
metri	-10.5966
▁nero	-10.5967
▁näyttänyt	-10.5968
▁vaakuna	-10.5968
▁wil	-10.5969
▁esine	-10.597
▁joskin	-10.597
▁muuttuu	-10.5972
keino	-10.5973
kerro	-10.5973
▁tuottaja	-10.5974
▁tek	-10.5975
▁raamatun	-10.5975
▁sijasta	-10.5979
▁1923	-10.598
kier	-10.5983
ux	-10.5983
kansa	-10.5983
▁raskas	-10.5983
▁kuolla	-10.5985
▁suunniteltu	-10.5991
▁rakasti	-10.5992
▁ymmärtä	-10.5993
▁amerikkalais	-10.5994
ttomaksi	-10.5996
▁tarka	-10.5996
▁elinkeino	-10.5998
▁nälkä	-10.6002
▁tutkimuksen	-10.6006
▁eteensä	-10.6006
yo	-10.6007
▁syrjään	-10.6009
käytö	-10.6011
▁tuomas	-10.6011
▁vaasan	-10.6012
▁tasku	-10.6013
▁pime	-10.6013
▁pyssy	-10.6014
▁laskea	-10.6016
▁valokuva	-10.6018
hoitaja	-10.6018
▁syödä	-10.6018
ii	-10.6021
▁kuninkaa	-10.6027
▁löytyi	-10.6028
42	-10.6038
maista	-10.6043
▁savi	-10.6043
▁pienempi	-10.6044
▁rintoja	-10.6044
▁päätin	-10.6047
alismi	-10.6048
▁korkeakoulu	-10.6051
neuvos	-10.6052
▁lehdet	-10.6052
▁sinusta	-10.6054
87	-10.6057
▁nikolai	-10.6058
▁tähd	-10.606
koo	-10.606
▁art	-10.6062
väen	-10.6065
▁henkilökohtaise	-10.6066
▁kaksois	-10.6066
uksilla	-10.6068
päivi	-10.607
▁pra	-10.6073
tessaan	-10.6076
▁luoja	-10.608
▁prinsessa	-10.608
▁vetäytyi	-10.6082
▁hyppäsi	-10.6083
▁auttoi	-10.6084
▁japanissa	-10.6085
▁huuta	-10.6087
▁juu	-10.6088
▁asioista	-10.6089
▁tarkasta	-10.6089
▁leski	-10.609
▁kierto	-10.6092
kadun	-10.6092
▁halki	-10.6093
▁pitäen	-10.6094
▁kyrpäni	-10.6094
▁avioliitto	-10.6095
▁englannissa	-10.6095
▁äänensä	-10.6096
▁seuraavassa	-10.6097
ring	-10.61
▁tehdas	-10.6101
lait	-10.6102
▁sk	-10.6104
▁ottivat	-10.6104
▁kotia	-10.6105
▁yhdysvaltalaise	-10.6106
▁kirjassa	-10.6108
▁argentiina	-10.6108
rre	-10.611
oille	-10.6111
▁äitini	-10.6112
▁asutus	-10.6116
▁ohjaa	-10.6117
ice	-10.6117
▁päätyttyä	-10.6118
▁kansanedustaja	-10.612
▁pau	-10.612
opettaja	-10.6122
▁internet	-10.6124
▁kestänyt	-10.6124
one	-10.6125
ye	-10.6129
ttomia	-10.613
uudella	-10.6131
▁papiksi	-10.6135
kirjan	-10.6139
kolle	-10.6141
▁2015.	-10.6142
37	-10.6144
▁poske	-10.6147
mmät	-10.6147
ellin	-10.6148
ntaa	-10.615
▁saatuaan	-10.6151
hol	-10.6153
▁luoteis	-10.6157
3.	-10.6158
▁porin	-10.6158
▁maasto	-10.6159
▁vedo	-10.6159
▁mei	-10.616
tule	-10.6163
▁kevään	-10.6164
▁tahtoisi	-10.6165
ettava	-10.6169
▁sul	-10.6169
tiikka	-10.6169
▁tuijot	-10.6169
▁company	-10.617
▁1921	-10.617
rie	-10.6173
tuvat	-10.6175
▁nuole	-10.618
rs	-10.618
▁kri	-10.6182
illut	-10.6183
▁seurakunnan	-10.6184
▁taisteluun	-10.6184
▁puoleksi	-10.6185
▁koiran	-10.6186
▁kevyt	-10.6188
▁loppui	-10.6188
▁wo	-10.6188
▁suomeksi	-10.6188
▁julista	-10.6188
lehdessä	-10.619
▁vieläpä	-10.6191
▁blues	-10.6193
vuoren	-10.6193
▁rasi	-10.6196
▁lyh	-10.6197
▁ennenkin	-10.6197
▁eilen	-10.6198
▁kipu	-10.6199
▁suunta	-10.62
elia	-10.62
▁haava	-10.6201
▁miljoonan	-10.6201
kt	-10.6206
elämä	-10.6208
▁elektroni	-10.6208
rad	-10.6209
nnassa	-10.621
▁nänni	-10.6211
▁tiedät	-10.6212
▁ob	-10.6214
näköis	-10.6214
rum	-10.6214
▁ruveta	-10.6214
66	-10.6218
▁täyttää	-10.6218
tähti	-10.6219
▁katsahti	-10.6222
▁uskaltanut	-10.6227
▁hattu	-10.6229
▁lempi	-10.6236
▁gran	-10.6238
▁edellisen	-10.6239
kaista	-10.6244
91	-10.6247
▁ainakaan	-10.6248
▁paini	-10.6249
▁ari	-10.6251
▁poistettiin	-10.6254
tho	-10.6254
yksikö	-10.6255
emma	-10.6255
joella	-10.6256
ction	-10.6257
▁länteen	-10.6257
▁mantere	-10.6257
star	-10.6259
▁väkeä	-10.6261
9.	-10.6261
▁jättänyt	-10.6262
▁piano	-10.6264
▁smith	-10.6266
ford	-10.6266
▁saatte	-10.6268
▁päätöksen	-10.6269
▁harja	-10.6269
▁johanna	-10.6273
▁ori	-10.6273
▁parhaaksi	-10.6275
▁asuin	-10.6277
▁uus	-10.6277
▁pensa	-10.6279
▁hermo	-10.6279
pään	-10.6281
▁suvun	-10.6281
kistä	-10.6284
▁voitiin	-10.6285
▁valui	-10.6286
ttinen	-10.6286
▁ohjelmisto	-10.6288
▁tauti	-10.6288
”)	-10.6291
▁helmi	-10.6291
▁vaikutteita	-10.6292
▁asukasluku	-10.6292
▁1926	-10.6293
rr	-10.6293
67	-10.6295
maisen	-10.6295
▁33	-10.6308
▁rumpali	-10.631
▁nuorempi	-10.6311
▁uu	-10.6312
▁här	-10.6314
▁markkina	-10.6315
▁eläkkeelle	-10.6315
▁suorastaan	-10.6315
▁sisäisen	-10.6318
joiden	-10.6319
▁vanhe	-10.6319
▁pitäjä	-10.632
▁elävät	-10.6321
▁oulu	-10.6326
meren	-10.6328
▁saar	-10.6328
▁1910	-10.6329
▁onhan	-10.6329
▁tekemi	-10.6337
▁julma	-10.634
rock	-10.634
kol	-10.634
▁papin	-10.634
▁osannut	-10.6341
▁kehittämä	-10.6341
▁pitävät	-10.6346
▁sittenkin	-10.6348
▁kre	-10.635
▁kävely	-10.635
lander	-10.6353
▁rikas	-10.6356
taisi	-10.636
kkien	-10.6363
▁taaksepäin	-10.6364
▁painu	-10.6365
▁hyökkääjä	-10.6365
tunnus	-10.6366
▁oja	-10.6367
75	-10.6371
64	-10.6372
▁kyky	-10.6372
seinä	-10.6374
▁pysyä	-10.6375
immin	-10.6375
borg	-10.6377
gia	-10.6377
kaikki	-10.6378
▁anu	-10.6379
▁syöksy	-10.638
▁chicago	-10.6381
▁monte	-10.6383
▁italiassa	-10.6388
cl	-10.6389
8.	-10.6389
ila	-10.6389
kkaat	-10.6391
liigassa	-10.6394
▁temp	-10.6395
mmäksi	-10.6398
tuli	-10.6398
viksi	-10.64
▁36	-10.6404
▁puola	-10.6408
▁kestävä	-10.6408
▁kappaleesta	-10.6408
▁levottoma	-10.6409
▁käsky	-10.641
▁bol	-10.641
▁saapuivat	-10.6411
▁sui	-10.6411
▁presidentin	-10.6416
▁haluan	-10.642
lum	-10.6421
▁(17	-10.6422
mättö	-10.6425
vari	-10.6425
▁käyttäjä	-10.6427
▁asukkaita	-10.6428
▁kerralla	-10.6428
▁pudot	-10.6429
isuudesta	-10.6432
▁kiinalais	-10.6436
ttäisi	-10.6437
▁välittömästi	-10.6438
▁silkki	-10.6441
ude	-10.6444
▁toisesta	-10.6444
kille	-10.6444
▁kuulo	-10.6445
▁ph	-10.6445
▁käärme	-10.6447
▁juhana	-10.6449
▁metro	-10.6451
▁tyttöä	-10.6451
▁lentä	-10.6453
▁vaatteet	-10.6454
▁kasvava	-10.6455
nnasta	-10.6456
):	-10.6457
▁kle	-10.6457
▁dor	-10.6457
▁une	-10.6457
▁suomalaiset	-10.6457
▁torju	-10.6458
▁koettaa	-10.6459
järjestelmän	-10.6459
julkaisu	-10.6459
▁pet	-10.6464
laulaja	-10.6464
joukon	-10.6469
▁kokemäenjoen	-10.647
▁peruste	-10.6473
▁estä	-10.6474
▁roomalais	-10.6474
▁päälleni	-10.6475
uro	-10.6476
dro	-10.6477
iaan	-10.6478
▁ilmassa	-10.648
▁harjoit	-10.6481
79	-10.6483
▁käyttävät	-10.6485
▁cap	-10.6487
kanava	-10.6487
▁molempien	-10.6488
▁sopimuksella	-10.6488
▁kaikessa	-10.6488
▁itään	-10.6489
▁huoma	-10.6491
▁700	-10.6493
▁tuule	-10.6495
▁omistaa	-10.6495
▁talven	-10.6497
▁suuttu	-10.6498
▁kääntä	-10.6499
läisten	-10.65
aattori	-10.6502
tanssi	-10.6502
hur	-10.6505
▁rannalle	-10.6506
▁lehmä	-10.6507
▁uudessa	-10.6507
▁kolmeen	-10.6507
56	-10.6509
yl	-10.6515
▁max	-10.6515
vene	-10.6515
▁välille	-10.6516
kkojen	-10.652
▁otte	-10.6521
▁yhdeksi	-10.6524
▁aro	-10.6527
▁turkki	-10.6528
▁manner	-10.6532
emmi	-10.6534
▁ajatukset	-10.6535
▁mihinkään	-10.6535
▁perustaja	-10.6535
▁mitkä	-10.6536
▁pankki	-10.6538
▁suostui	-10.6538
▁seudun	-10.654
▁alkua	-10.6542
▁pitkää	-10.6542
▁yhteiskunnallis	-10.6544
▁kiina	-10.6544
▁polttoaine	-10.6545
▁vaihta	-10.6548
▁luulin	-10.6548
▁esitys	-10.6549
▁toivoa	-10.6549
▁mary	-10.655
joille	-10.655
▁jakaa	-10.6551
laisista	-10.6556
▁munkki	-10.6557
▁aikoinaan	-10.6558
▁järjesti	-10.6563
▁helsinkiin	-10.6565
▁hävittäjä	-10.6565
opisto	-10.6566
hallinto	-10.6566
kautensa	-10.6569
teh	-10.6569
▁yhdys	-10.6573
iassa	-10.6574
1.	-10.6574
emi	-10.6575
▁tulossa	-10.6576
ale	-10.6577
▁syksy	-10.658
▁sijalla	-10.6581
▁laulun	-10.6585
▁kirjallisuuden	-10.6586
▁heittä	-10.6588
juu	-10.6589
mmasta	-10.659
iri	-10.6591
▁perustama	-10.6594
7.	-10.6596
▁matkusti	-10.6598
▁suureksi	-10.6599
▁sami	-10.66
▁luokan	-10.6601
▁ihanan	-10.6603
▁kiinnostu	-10.6604
▁purista	-10.6605
arin	-10.6607
haara	-10.6608
▁huhu	-10.6608
mes	-10.6609
▁ominais	-10.6609
imet	-10.6611
▁mittaa	-10.6612
▁makuu	-10.6612
▁kirkkaa	-10.6615
▁imi	-10.6615
wood	-10.6615
▁hengi	-10.6618
ilemaan	-10.6618
36	-10.6621
▁sig	-10.6621
▁angeles	-10.6624
▁ryö	-10.6626
▁die	-10.6627
▁kit	-10.6627
▁luoda	-10.6629
rii	-10.663
▁maista	-10.6631
62	-10.6632
▁jumalaa	-10.6632
yri	-10.6634
hai	-10.6634
▁pelkästään	-10.6634
▁2013.	-10.6638
▁prix	-10.664
▁sill	-10.664
puolelta	-10.6641
sissä	-10.6644
▁finn	-10.6644
mansa	-10.6645
▁vanno	-10.6649
▁arvioi	-10.6649
eva	-10.6651
▁lopun	-10.6651
▁kerää	-10.6653
▁vaalean	-10.6653
immista	-10.6653
▁olevia	-10.6653
54	-10.6656
▁siivo	-10.6657
keli	-10.6659
▁kannu	-10.666
▁suurimmat	-10.666
tason	-10.6663
▁tuoda	-10.6676
jö	-10.6678
▁luule	-10.6681
▁käsite	-10.6682
▁imp	-10.6682
▁taulu	-10.6682
▁haaro	-10.6685
umin	-10.6685
▁jatku	-10.6686
kla	-10.6687
▁vahvisti	-10.6688
oikeuden	-10.6688
▁pariisi	-10.6689
▁rakkautta	-10.6689
dun	-10.669
▁viipy	-10.6691
▁elämästä	-10.6692
▁arvio	-10.6692
41	-10.6693
▁hake	-10.6695
elo	-10.6696
▁ratkais	-10.6698
▁veikko	-10.6701
▁selittä	-10.6702
vassa	-10.6702
▁vastus	-10.6703
▁arma	-10.6704
▁tekemistä	-10.6706
▁päättävä	-10.671
▁elämässä	-10.6713
▁elokuvaa	-10.6714
bal	-10.6715
▁edustanut	-10.6716
▁toisiamme	-10.6717
teollisuus	-10.6717
jouko	-10.6718
▁lääni	-10.6719
teihin	-10.6719
dessa	-10.6719
pyy	-10.6721
▁luvan	-10.6724
kaamme	-10.6725
pt	-10.6725
iz	-10.6725
laisessa	-10.6728
▁kiihottava	-10.6728
kirjo	-10.6731
tauti	-10.6734
49	-10.6736
▁kalun	-10.6737
▁housu	-10.6737
▁kirkas	-10.6737
▁tarvi	-10.6738
▁vittu	-10.674
urin	-10.6741
anto	-10.6742
uni	-10.6742
piir	-10.6743
sion	-10.6744
▁leo	-10.6751
▁seuraavalla	-10.6751
▁nuorena	-10.6752
▁laukea	-10.6753
▁yritin	-10.6756
log	-10.6757
▁miks	-10.676
▁tour	-10.6763
▁rahoi	-10.6764
▁pillua	-10.6767
▁tulemaan	-10.6772
▁kirk	-10.6776
▁kaakkois	-10.6777
▁laittoi	-10.6781
saksa	-10.6782
▁maku	-10.6782
▁suurella	-10.6783
▁hoitaa	-10.6784
mys	-10.6786
▁vähi	-10.6788
▁veny	-10.679
▁tieltä	-10.679
▁hieroi	-10.6791
valle	-10.6793
▁toden	-10.6796
ilainen	-10.6797
▁paisu	-10.6798
▁tiukasti	-10.6799
▁serkku	-10.68
▁omituise	-10.6802
▁upo	-10.6802
teltu	-10.6804
▁38	-10.6805
▁use	-10.681
taito	-10.6811
▁punaisen	-10.6814
▁päätyi	-10.6815
▁käytävä	-10.6815
maalla	-10.6818
▁1600-	-10.6818
▁ajatuksia	-10.6819
sopimuksen	-10.6821
▁hie	-10.6821
▁toistaiseksi	-10.6822
▁artikkeli	-10.6823
nimen	-10.6824
▁jenni	-10.6825
▁kapina	-10.6825
▁keisarin	-10.6825
▁ministeri	-10.683
▁nauru	-10.6832
▁ikkunan	-10.6832
▁cre	-10.6832
▁taloudellis	-10.6835
▁1922	-10.6835
▁akkuna	-10.6836
uutena	-10.6838
▁silmää	-10.6838
▁itävallan	-10.6838
68	-10.6838
▁tytö	-10.6841
▁talle	-10.6841
tha	-10.6842
▁com	-10.6842
▁onneton	-10.6848
▁hip	-10.6848
▁ostaa	-10.685
▁käyttämä	-10.6852
eissä	-10.6853
▁tyytyväinen	-10.6854
▁kulunut	-10.6854
▁å	-10.6854
▁tukholman	-10.686
▁omistama	-10.6866
sc	-10.6866
▁hauskaa	-10.6869
▁1906	-10.6873
▁tuloksella	-10.6873
▁tumman	-10.6874
▁tulta	-10.6875
▁jim	-10.6879
▁ib	-10.6879
▁tiedo	-10.6882
▁rus	-10.6883
keskukse	-10.6886
heim	-10.6888
cor	-10.6889
▁oppilaa	-10.6891
▁vihan	-10.6892
▁spe	-10.6893
▁tehtävänä	-10.6896
▁kyrpää	-10.69
▁miina	-10.6903
▁kirjaa	-10.6905
muut	-10.6906
▁arki	-10.6907
▁mainio	-10.6909
▁katke	-10.6917
▁vaino	-10.692
▁just	-10.6924
▁selvisi	-10.6926
▁yhty	-10.6926
vuosi	-10.6928
▁luja	-10.6928
poja	-10.6929
▁vaatteita	-10.693
xin	-10.693
▁hehku	-10.693
▁olemassaolo	-10.6931
▁pih	-10.6933
▁37	-10.6933
▁kaupan	-10.6934
▁valmistama	-10.6935
aminen	-10.6937
kr	-10.6937
▁olevaan	-10.694
▁antautu	-10.6941
–6	-10.6942
▁suutele	-10.6943
▁viidenneksi	-10.6948
▁mielestäni	-10.6948
▁johtui	-10.6949
mieli	-10.6949
▁sulo	-10.6952
▁asiaan	-10.6954
▁sävy	-10.6959
▁reitti	-10.6961
▁aho	-10.6962
▁pyydän	-10.6962
▁sak	-10.6963
vuutta	-10.6966
▁rauhaa	-10.6972
yyli	-10.6972
ara	-10.6973
▁totuuden	-10.6973
▁osoit	-10.6976
stro	-10.6979
▁suhde	-10.6982
▁tarttu	-10.6982
▁aino	-10.6982
kana	-10.6983
2-	-10.6985
▁johtuu	-10.6985
oikeude	-10.6986
▁hankkia	-10.6987
▁opi	-10.6989
▁parempaa	-10.6991
läiset	-10.6991
▁yrittä	-10.6992
▁valmistettiin	-10.6992
pus	-10.6998
▁seisoo	-10.6999
▁ryhmi	-10.7001
tuivat	-10.7002
low	-10.7003
▁katsoin	-10.7004
▁julkaista	-10.7004
eg	-10.7005
▁epäilemättä	-10.7005
▁tru	-10.7005
▁saaristo	-10.7012
▁käytöstä	-10.7013
rakentee	-10.7014
58	-10.702
▁pentti	-10.7022
johtajana	-10.7024
▁metsästys	-10.7025
▁taasen	-10.7025
▁löytänyt	-10.7027
-20	-10.7028
uksien	-10.7029
▁mikael	-10.703
ästä	-10.7035
shin	-10.7037
▁college	-10.7042
▁suuta	-10.7043
▁hiipi	-10.7045
hallituksen	-10.7045
▁kuole	-10.7046
▁toiselta	-10.7046
mppa	-10.7047
▁aita	-10.7048
▁määräsi	-10.7052
▁vaihtoi	-10.7052
▁rajan	-10.7055
▁sukellusvene	-10.7055
ysi	-10.7057
4.	-10.7058
kh	-10.7059
▁ollutkaan	-10.7059
pyörä	-10.7059
puri	-10.7061
▁pelästy	-10.7061
▁(2	-10.7062
▁mulla	-10.7062
▁suhteellisen	-10.7062
▁pelastus	-10.7064
":	-10.7067
▁varhain	-10.7067
teillä	-10.7067
▁arabi	-10.7069
5.	-10.7069
▁mietin	-10.707
▁pääsy	-10.7071
▁ehdolla	-10.7071
▁köy	-10.7072
▁bay	-10.7076
▁tampere	-10.7079
▁noudatta	-10.708
▁määrättiin	-10.708
▁kuntaan	-10.708
▁saamme	-10.7088
▁gor	-10.7088
▁kulkeva	-10.709
vas	-10.7091
▁istua	-10.7094
44	-10.7095
▁tuomi	-10.71
▁kreikkalais	-10.7101
▁2016.	-10.7101
▁luis	-10.7105
kkejä	-10.7105
sopimus	-10.7108
voitto	-10.7114
juhla	-10.7115
▁1915	-10.7119
onko	-10.712
▁voimalla	-10.7122
ssel	-10.7123
▁käsiin	-10.7126
nettiin	-10.7126
piirin	-10.7128
alis	-10.7129
▁siirsi	-10.713
jun	-10.7133
▁veh	-10.7134
▁aste	-10.7138
▁joutu	-10.7139
▁vakio	-10.714
▁maisema	-10.7142
vali	-10.7143
▁viimeiseksi	-10.7143
kuntaa	-10.7144
▁lor	-10.7147
▁etsimään	-10.7148
▁pit	-10.7151
–4	-10.7151
▁talvella	-10.7152
▁muilla	-10.7154
▁vaipui	-10.7156
▁molemmin	-10.7157
▁konsertti	-10.7158
▁valloitta	-10.7158
▁mad	-10.7158
▁huomioon	-10.7159
laitoksen	-10.7161
▁jatkuva	-10.7162
▁pöydälle	-10.7162
rekisteri	-10.7163
▁hms	-10.7163
▁paimen	-10.7164
huu	-10.7164
voja	-10.7166
▁romania	-10.7167
▁taivut	-10.7167
mpään	-10.7168
▁tilattiin	-10.7168
illo	-10.7171
▁janne	-10.7171
▁nokia	-10.7171
▁kunniaksi	-10.7172
52	-10.7172
vuotis	-10.7172
jer	-10.7173
▁vesistö	-10.7175
määri	-10.7176
▁kohotta	-10.7177
▁tehot	-10.7178
rauha	-10.718
sseja	-10.718
▁sport	-10.7181
▁gla	-10.7184
▁saama	-10.7185
▁oikealla	-10.7186
▁katselin	-10.7187
▁opettajana	-10.7187
▁puolta	-10.7189
noista	-10.7191
kista	-10.7191
liito	-10.7195
▁kaisa	-10.7196
▁aktiivi	-10.7197
▁voitte	-10.7199
väylä	-10.72
▁käymään	-10.7202
tasolla	-10.7205
▁sohva	-10.7206
-2	-10.7208
pojan	-10.7209
▁olle	-10.721
▁väitti	-10.7211
ois	-10.7211
▁muistutti	-10.7214
▁yltä	-10.7214
johto	-10.7214
▁riveissä	-10.7215
▁emo	-10.7215
▁huutaa	-10.7216
illen	-10.7217
▁ympäröi	-10.7218
59	-10.7219
▁kamala	-10.722
▁riippuu	-10.7221
▁rahat	-10.7221
lut	-10.7224
▁180	-10.7225
▁yhteinen	-10.7234
▁gro	-10.7234
ish	-10.724
▁raunio	-10.724
kielinen	-10.7242
▁leu	-10.7244
ub	-10.7248
▁mainos	-10.7249
▁tapaus	-10.7249
ästi	-10.725
▁fil	-10.725
▁kynttilä	-10.7253
▁israelin	-10.7253
▁leviä	-10.7255
▁katsellen	-10.7255
▁bill	-10.7257
mmassa	-10.7259
▁käteen	-10.726
▁norja	-10.7261
valmentaja	-10.7262
toimintaa	-10.7262
▁pierre	-10.7265
▁maini	-10.7265
▁rö	-10.7266
▁tap	-10.727
mikä	-10.7271
▁jääkiekkoilija	-10.7271
▁uuni	-10.7273
▁vaiti	-10.7274
▁näyttämö	-10.7274
▁tutu	-10.7276
▁kunnian	-10.7278
▁lähettä	-10.7281
sio	-10.7283
▁saattavat	-10.7284
▁part	-10.7284
▁valita	-10.7284
▁sanoivat	-10.7285
neina	-10.7292
leja	-10.7292
▁gen	-10.7292
▁yhdysvaltoihin	-10.7292
▁edward	-10.7292
▁ominaisuudet	-10.7292
▁school	-10.7294
▁askel	-10.7296
▁sehän	-10.7296
vistä	-10.7296
▁täten	-10.7297
▁aikoja	-10.7298
saare	-10.7299
▁sunnuntai	-10.7301
▁voimme	-10.7301
pla	-10.7302
bro	-10.7304
▁ban	-10.7306
nään	-10.7306
▁pano	-10.7308
▁tiellä	-10.7309
▁sijoitus	-10.7309
▁varsinainen	-10.7312
▁löyty	-10.7312
▁yliopistosta	-10.7313
▁pakka	-10.7314
sillä	-10.7316
tuneet	-10.7316
▁yksinkertais	-10.7317
▁eks	-10.7317
▁hevonen	-10.7318
run	-10.7318
▁sofia	-10.7319
▁kuuluisi	-10.7322
▁joukkueeseen	-10.7323
▁vakuu	-10.7323
▁tyhj	-10.7324
▁vaihto	-10.7325
seuran	-10.7327
▁päivät	-10.733
kyl	-10.733
85	-10.7331
▁joukkoja	-10.7331
▁turnauksen	-10.7334
▁master	-10.7336
▁park	-10.7338
▁katsoo	-10.7339
46	-10.7339
uduin	-10.7341
▁vangit	-10.7345
▁käyttäyty	-10.7346
▁sauva	-10.7347
etin	-10.7347
▁silmiä	-10.7347
▁menetelmä	-10.7349
▁suusta	-10.735
▁uran	-10.735
76	-10.735
▁1908	-10.7351
yyteen	-10.7351
eus	-10.7352
▁hiki	-10.7353
▁valmistetaan	-10.7355
▁tosiaan	-10.7356
▁maihin	-10.7357
▁jättiläis	-10.7358
▁vartioi	-10.7358
▁omin	-10.736
▁susi	-10.7367
▁nuorukainen	-10.737
▁ateenan	-10.7371
tensä	-10.7373
▁taika	-10.7376
▁ajat	-10.7376
▁kunnallis	-10.7377
▁edistä	-10.7379
▁tyttäre	-10.7379
huoneessa	-10.7383
▁kruunu	-10.7384
▁toisia	-10.7389
tsin	-10.7391
tellyt	-10.7391
▁hape	-10.7393
solu	-10.7395
▁oppinut	-10.7396
▁eduskunta	-10.7398
maajoukkue	-10.74
sku	-10.7402
▁tarinan	-10.7403
74	-10.7403
▁herman	-10.7404
▁kosi	-10.7404
▁pöy	-10.7405
▁opinto	-10.7405
▁kulke	-10.7405
tuksella	-10.7405
▁valossa	-10.7409
vartija	-10.7411
▁barb	-10.7412
▁lyy	-10.7415
▁lähtemään	-10.7415
▁kiito	-10.7416
▁film	-10.7416
lammi	-10.7417
ttäneet	-10.7423
▁alueeseen	-10.7426
▁kiel	-10.7428
▁saisin	-10.7428
▁washington	-10.7429
▁täh	-10.7431
▁hame	-10.7431
elämän	-10.7434
▁laskeutui	-10.7435
cus	-10.7436
▁vallat	-10.7437
▁synkkä	-10.7439
▁antamaan	-10.7439
▁erotta	-10.744
korva	-10.7441
▁korvasi	-10.7443
toni	-10.7445
tely	-10.7446
ihmis	-10.7451
vuotia	-10.7451
▁rinnat	-10.7451
kirjailija	-10.7452
▁karsi	-10.7453
ttakaa	-10.7453
▁huolehti	-10.7454
tuva	-10.7455
▁leve	-10.7458
yritys	-10.7459
kiele	-10.7461
▁kädessään	-10.7463
kuka	-10.7464
tieteellis	-10.7466
▁tarvitaan	-10.7468
huo	-10.7471
▁pohjoispuolella	-10.7472
lou	-10.7472
▁suureen	-10.7472
rah	-10.7472
▁miellyttävä	-10.7472
▁viivy	-10.7473
▁vaihde	-10.7475
▁wei	-10.7477
▁eksy	-10.7477
▁zo	-10.7478
▁kulkea	-10.748
tyt	-10.7481
▁vää	-10.7481
▁vuosikymmen	-10.7481
yli	-10.7484
▁siuna	-10.7485
▁purka	-10.7485
▁kallis	-10.7489
▁repi	-10.7489
rooli	-10.749
▁nur	-10.7491
▁rose	-10.7493
▁syvemmälle	-10.7494
▁tulos	-10.7495
▁tehtävää	-10.7497
▁edustalla	-10.7498
ami	-10.75
▁perintö	-10.7501
jou	-10.7505
▁ulkomailla	-10.7509
▁kilpailija	-10.751
▁ääreen	-10.751
▁itseänsä	-10.7511
▁kisko	-10.7516
▁kummi	-10.752
tajia	-10.752
▁taiteen	-10.7521
kara	-10.7521
▁valinta	-10.7522
▁pare	-10.7522
verkko	-10.7526
▁nämät	-10.7526
▁valmentaja	-10.7527
▁intohimo	-10.7527
▁1905	-10.7529
well	-10.7529
▁riippuen	-10.7531
▁piispan	-10.7531
teatteri	-10.7532
▁monesti	-10.7532
▁vaale	-10.7534
▁lähemmäksi	-10.7534
▁väestöstä	-10.7537
▁jones	-10.7539
vero	-10.7541
▁bern	-10.7545
▁suvu	-10.7545
▁bert	-10.7545
▁cho	-10.7545
▁kaste	-10.7548
▁maksoi	-10.7549
▁alueilla	-10.755
▁pui	-10.755
▁pormestari	-10.755
▁ynnä	-10.7551
▁erik	-10.7551
▁pelaajana	-10.7552
▁pääsisi	-10.7554
▁kullin	-10.7554
▁oiva	-10.7555
lius	-10.7558
aikainen	-10.756
▁ajaksi	-10.7567
▁summa	-10.7568
ef	-10.7568
silta	-10.7573
▁päähenkilö	-10.7576
kuinka	-10.7577
▁israel	-10.7579
retki	-10.7579
▁ketju	-10.758
▁alueelta	-10.7584
▁olevien	-10.7585
dé	-10.7587
teisiin	-10.7588
▁tavan	-10.7591
velvollis	-10.7592
▁hill	-10.7592
▁char	-10.7593
▁kirkkoon	-10.7597
▁huoka	-10.7598
▁williams	-10.76
▁tavata	-10.76
torin	-10.7602
▁valtatie	-10.7603
▁omien	-10.7605
tulla	-10.7606
▁muitakin	-10.7607
▁vastaus	-10.7608
noin	-10.7609
▁löytä	-10.7609
▁cra	-10.7609
▁mallin	-10.7613
▁kalastus	-10.7613
▁toistensa	-10.7615
▁kelpo	-10.7618
▁voiman	-10.7621
ire	-10.7625
▁osallistunut	-10.7625
vaksi	-10.7626
▁valtakunta	-10.7628
telin	-10.7629
▁tunnettuja	-10.763
▁may	-10.7633
fal	-10.7633
▁nauti	-10.7634
nossa	-10.7635
▁liika	-10.7635
gre	-10.7636
ér	-10.7637
▁pakoon	-10.764
▁kiihkeästi	-10.764
tusten	-10.7643
▁merkit	-10.7643
▁yk	-10.7644
▁sukuun	-10.7646
▁senttimetriä	-10.7649
onne	-10.7651
ttelin	-10.7651
▁harju	-10.7657
put	-10.7658
ight	-10.766
maisia	-10.766
▁asetta	-10.7661
eeni	-10.7664
nie	-10.7664
▁koulussa	-10.7665
luun	-10.7666
▁saapuu	-10.7667
▁osui	-10.7668
▁viere	-10.7669
▁puuha	-10.767
sarjaan	-10.7671
▁aikansa	-10.7673
tyypin	-10.7673
▁täydellis	-10.7674
▁menen	-10.7677
▁mont	-10.7677
▁34	-10.7681
▁hyökkäsi	-10.7683
▁rajusti	-10.7686
▁sormet	-10.7689
▁semmoista	-10.7689
▁lehto	-10.7691
ffi	-10.7691
▁pesi	-10.7695
▁kevye	-10.7699
▁tuttava	-10.7699
▁jälke	-10.7702
ppaa	-10.7706
▁green	-10.7707
nutta	-10.7708
▁2017.	-10.7708
▁show	-10.7709
▁ludvig	-10.771
▁brown	-10.771
aluetta	-10.771
▁virallisen	-10.7711
▁tapahtumia	-10.7712
if	-10.7712
▁kirjallisuus	-10.7713
▁lap	-10.7714
▁kauas	-10.7714
▁halusin	-10.7715
▁päällys	-10.7715
▁bru	-10.7719
▁valkoiset	-10.7721
aasi	-10.7721
▁kihla	-10.7722
▁työnsin	-10.7724
▁sanasta	-10.7725
neesta	-10.7726
▁lukija	-10.7726
▁tiukka	-10.7729
▁koripallo	-10.773
▁yleisurheilu	-10.7731
▁huohot	-10.7731
▁hammas	-10.7731
▁dur	-10.7731
ord	-10.7733
ex	-10.7733
▁kuvia	-10.7734
ruo	-10.7735
maksu	-10.7735
▁inho	-10.774
▁ilmaisi	-10.774
▁qui	-10.774
▁linnun	-10.7741
ydy	-10.7743
▁merkitystä	-10.7743
ässä	-10.7745
dista	-10.7747
▁muusikko	-10.7751
▁poliittis	-10.7751
▁jätä	-10.7751
▁gall	-10.7753
▁tupa	-10.7756
tilaa	-10.7756
▁parka	-10.7758
▁erillis	-10.7759
ttomuus	-10.7761
▁merkitsi	-10.7763
▁saattaisi	-10.7764
▁saattoivat	-10.7765
ova	-10.7766
▁vere	-10.7766
51	-10.7769
69	-10.7769
▁sijoitettu	-10.7771
ehto	-10.7772
▁näkyviin	-10.7774
▁zi	-10.7775
▁ilmoittaa	-10.7777
▁erämaa	-10.7778
▁moskova	-10.778
▁puhdas	-10.778
▁yrit	-10.7781
▁heli	-10.7782
bl	-10.7784
vie	-10.7785
ytyi	-10.7786
our	-10.7786
▁kasvojen	-10.779
▁läheisyydessä	-10.7791
▁ovea	-10.7792
▁kiihko	-10.7793
▁eeva	-10.7794
▁uudeksi	-10.7795
▁puolusta	-10.7798
kulta	-10.7798
yden	-10.7801
▁maansa	-10.7806
▁osavaltion	-10.781
▁wilhelm	-10.7812
▁kasvatus	-10.7812
▁maha	-10.7815
nimellä	-10.7817
▁kiihkeä	-10.7817
63	-10.7818
▁tele	-10.7819
▁olkapää	-10.7819
▁turkin	-10.782
▁haltuunsa	-10.782
▁tietojen	-10.782
imen	-10.7821
▁maalin	-10.7822
▁vaikuttanut	-10.7824
▁joukosta	-10.7824
▁vieri	-10.7826
▁verra	-10.7827
▁tois	-10.7827
▁osta	-10.7827
▁opiskelu	-10.7827
▁lampi	-10.7827
upseeri	-10.7837
▁kutsua	-10.7838
▁itävalta	-10.7838
▁alkuperäisen	-10.7839
▁osakilpailu	-10.784
lista	-10.7841
▁nap	-10.7847
▁iloa	-10.7848
▁hyökkäykse	-10.7848
▁tiheä	-10.7849
▁pistä	-10.7852
▁tuijotti	-10.7854
▁kuopion	-10.7856
▁myöhään	-10.7856
▁upea	-10.7857
▁hö	-10.7857
▁aloittaa	-10.7858
ema	-10.7858
▁työnsä	-10.7861
▁pysähty	-10.7862
▁sillan	-10.7863
▁hyvänsä	-10.7864
▁viita	-10.7865
▁esitteli	-10.787
▁kirkonkylä	-10.7874
▁kukkula	-10.7875
▁tullessa	-10.7875
monin	-10.7876
▁petr	-10.7878
▁antaisi	-10.7878
▁leon	-10.7878
adi	-10.7879
▁australia	-10.788
tuoli	-10.7883
bre	-10.7885
vyyttä	-10.7886
▁viimeisi	-10.7887
▁sumu	-10.7887
vih	-10.7887
▁ylhäis	-10.7888
▁loisto	-10.7888
timme	-10.7888
▁tehtaan	-10.7893
▁hilli	-10.7894
▁puhelin	-10.7895
▁hänkin	-10.79
lm	-10.7902
▁harri	-10.7902
▁yhdistys	-10.7903
▁band	-10.7905
▁osassa	-10.7905
▁nimessä	-10.7906
▁(20	-10.7908
suom	-10.7911
▁kasvatta	-10.7911
▁viulu	-10.7911
▁vilkas	-10.7913
▁väestönlaskenna	-10.7915
▁dildo	-10.7915
▁läntise	-10.7915
▁vaihtelee	-10.7916
päällikkönä	-10.7917
▁suurten	-10.792
▁väestön	-10.7922
▁ilmari	-10.7926
toverei	-10.7926
▁kirjallis	-10.7929
▁kauppias	-10.793
▁kuolemaansa	-10.793
▁määrän	-10.793
▁sanottiin	-10.7932
▁turku	-10.7932
▁ajoneuvo	-10.7933
bol	-10.7933
chen	-10.7934
▁arvele	-10.7936
▁jäseniä	-10.7937
?...	-10.7938
retke	-10.7939
▁herättä	-10.7944
olin	-10.7944
▁vaaran	-10.7946
▁kohotti	-10.7949
▁ois	-10.7949
▁esittämä	-10.795
▁pohjaan	-10.7952
▁putoa	-10.7953
▁nimitys	-10.7953
▁kouri	-10.7954
zan	-10.7954
kunnissa	-10.7955
▁yhdistää	-10.7955
▁tapahtua	-10.7956
▁kahdeksas	-10.7956
televa	-10.7957
▁ehdotti	-10.7957
tyksestä	-10.7958
jel	-10.7959
mannin	-10.7959
▁vakavasti	-10.796
▁johtava	-10.7961
ming	-10.7963
äkkiä	-10.7964
▁(”	-10.7965
▁filip	-10.7965
▁silmäni	-10.7968
▁kunnossa	-10.797
ome	-10.797
▁alalla	-10.797
ttävän	-10.7973
▁opetti	-10.7977
▁roomalaiskatoli	-10.7977
▁keskimäärin	-10.7977
▁työstä	-10.7979
▁enemmistö	-10.7979
▁syvään	-10.798
tivat	-10.7982
korkeakoulu	-10.7982
▁valitta	-10.7983
▁vihaa	-10.7983
mää	-10.7984
▁hiukset	-10.7984
▁kristuksen	-10.7984
▁tuumi	-10.7985
▁blo	-10.7985
▁maalaus	-10.7986
▁stadion	-10.7988
▁laine	-10.799
sataa	-10.799
▁milj	-10.7995
hopeaa	-10.7997
kselle	-10.7998
▁tarkemmin	-10.7998
and	-10.8
▁2004.	-10.8001
ctor	-10.8002
▁oltiin	-10.8002
▁pyrkii	-10.8005
▁yorkin	-10.8006
▁julisti	-10.8006
teos	-10.8008
lic	-10.8009
▁viisas	-10.8009
▁luokseni	-10.8009
▁kylään	-10.801
▁uusien	-10.801
kasvi	-10.8011
▁todista	-10.8014
▁ääniä	-10.8014
▁laskettu	-10.8016
▁tulva	-10.8017
▁kieltäytyi	-10.8017
tussa	-10.8018
▁stanley	-10.802
▁raskaan	-10.8021
verkosto	-10.8024
▁kehä	-10.8024
▁runko	-10.8025
▁nähdään	-10.8026
projekti	-10.8027
57	-10.8028
▁angel	-10.803
suunta	-10.8034
apu	-10.8035
▁virran	-10.804
▁etupäässä	-10.8041
▁ulkopuolelle	-10.8042
▁ajattelu	-10.8043
▁ymmärtänyt	-10.8044
▁tyypillisesti	-10.8045
juna	-10.8049
▁jackson	-10.805
▁vihki	-10.8051
tkö	-10.8051
tulle	-10.8052
yksikkö	-10.8052
aria	-10.8054
▁luopui	-10.8057
▁ääri	-10.8057
▁kiersi	-10.8059
▁paloi	-10.8059
▁mitenkään	-10.806
▁madrid	-10.8061
▁millään	-10.8061
▁kenenkään	-10.8063
▁uhkaa	-10.8064
▁portugali	-10.807
▁maalla	-10.8071
liin	-10.8074
▁turkkilais	-10.8076
▁peitti	-10.8076
▁lajit	-10.8077
▁avaus	-10.8079
▁sitäpaitsi	-10.8082
▁itselleni	-10.8085
▁menettä	-10.8085
▁aku	-10.8085
▁esitykse	-10.8086
▁huoneesta	-10.8091
▁sveitsin	-10.8096
▁symboli	-10.8097
▁salon	-10.8097
▁onnettoma	-10.8097
gs	-10.8102
▁teknise	-10.8102
▁caesar	-10.8103
▁valoa	-10.8104
gli	-10.8105
▁käyttivät	-10.8106
▁tuomittiin	-10.8107
▁suussa	-10.8107
▁käteensä	-10.8107
▁puhumaan	-10.8107
▁2:	-10.8107
▁tiety	-10.811
rey	-10.8114
rau	-10.8114
dell	-10.8114
eau	-10.8115
lje	-10.8116
▁jatkuvasti	-10.8117
kalu	-10.8117
04	-10.8119
▁keskelle	-10.812
dale	-10.8121
▁tulet	-10.8122
▁vartija	-10.8123
stellen	-10.8124
▁kadonnut	-10.8124
▁international	-10.8124
▁korpi	-10.813
▁sadan	-10.8132
utuivat	-10.8132
▁seisa	-10.8133
▁kuvio	-10.8133
▁rantaan	-10.8134
ktio	-10.8137
▁vuodeksi	-10.8138
gy	-10.8138
jako	-10.8139
fan	-10.8139
▁joo	-10.814
▁sisu	-10.8141
▁löydettiin	-10.8145
▁työskennellyt	-10.8145
kaksi	-10.8146
▁arthur	-10.8146
▁vahingo	-10.8151
tykset	-10.8153
telleet	-10.8157
turi	-10.8158
merkit	-10.8161
ref	-10.8161
oksidi	-10.8162
amo	-10.8165
▁jossain	-10.8165
▁valkoisen	-10.8166
▁reagoi	-10.8167
▁group	-10.8167
▁hirmu	-10.8167
jiä	-10.8167
▁naaras	-10.8168
konserni	-10.8168
eb	-10.8168
▁epi	-10.8168
▁huulille	-10.8171
nahka	-10.8173
▁miehistä	-10.8174
▁lopullisesti	-10.8175
▁liina	-10.8176
▁sotaan	-10.8177
joukot	-10.8179
suomessa	-10.818
hydr	-10.8182
▁osalta	-10.8183
koht	-10.8185
▁sitoutu	-10.8187
▁kha	-10.8187
sopimuks	-10.8188
▁tappelu	-10.8188
▁kehu	-10.8188
▁raukka	-10.8189
▁1913	-10.8189
nell	-10.819
▁edessäni	-10.819
▁valke	-10.8191
▁hävit	-10.8193
pat	-10.8196
▁ottaen	-10.8196
▁näe	-10.8203
▁esti	-10.8204
oto	-10.8205
▁hyöty	-10.8208
▁riko	-10.8209
fl	-10.8209
▁epäluulo	-10.8209
▁rakentaminen	-10.8209
▁samuel	-10.8209
▁rajoi	-10.8209
▁käänty	-10.821
▁henkensä	-10.8211
isteli	-10.8211
▁tha	-10.8212
▁maat	-10.8214
▁valhe	-10.8214
bot	-10.8215
▁jaettiin	-10.8216
53	-10.8217
puun	-10.822
iseva	-10.8221
▁viimeistä	-10.8227
ym	-10.8227
▁saksalaisten	-10.8228
talli	-10.823
▁250	-10.823
▁kalpea	-10.8231
3-	-10.8232
▁lemmen	-10.8235
▁lohdu	-10.8235
▁pistemies	-10.8236
▁ystäviä	-10.8237
▁makaamaan	-10.8238
▁seksi	-10.824
▁mahdollise	-10.8246
ttain	-10.8246
▁cam	-10.8246
▁steve	-10.8247
ympäristö	-10.8248
reuna	-10.8248
▁syys	-10.8249
erä	-10.825
kaltaise	-10.8251
eria	-10.8253
▁mauri	-10.8255
▁myö	-10.8256
▁risto	-10.8256
▁huomaamatta	-10.8257
hard	-10.8258
▁roh	-10.8259
kil	-10.8259
▁poikien	-10.826
▁alkavat	-10.826
▁kaare	-10.8261
▁homma	-10.8262
▁insinööri	-10.8264
kallio	-10.8265
▁ark	-10.8265
▁jaksossa	-10.8267
▁terskan	-10.8269
▁nurmi	-10.827
▁vaikutusta	-10.8271
▁ääneti	-10.8273
▁onnettomuus	-10.8274
▁rikollis	-10.8275
alisti	-10.8277
▁kurki	-10.8277
line	-10.8278
▁käsiinsä	-10.828
usi	-10.8281
▁kanssani	-10.8286
▁18-	-10.8286
▁sijoittu	-10.8287
▁tuh	-10.8288
koot	-10.8289
▁päätettiin	-10.8291
kah	-10.8292
▁vastausta	-10.8294
▁historiallise	-10.8298
▁sykki	-10.8301
▁kykene	-10.8302
▁sho	-10.8303
▁lep	-10.8305
▁vietiin	-10.8307
▁vastusti	-10.8308
▁yleisen	-10.8309
▁mol	-10.8309
liiga	-10.8309
koilla	-10.8309
▁malja	-10.8311
▁sisäratojen	-10.8317
▁sijoitettiin	-10.8317
▁kolo	-10.8318
▁opas	-10.8318
ín	-10.8319
▁eteläpuolella	-10.832
tuaan	-10.8323
▁filosofia	-10.8324
▁pelaavaa	-10.8325
▁itke	-10.8325
▁pelasta	-10.8326
ram	-10.8328
kunnalle	-10.8329
▁flo	-10.8331
▁jalkapallon	-10.8332
yle	-10.8334
▁ilkeä	-10.8335
▁kotiinsa	-10.8337
neensä	-10.8338
▁united	-10.8339
teille	-10.8339
▁tapauksissa	-10.834
▁suunnitellut	-10.834
▁leikkiä	-10.8341
▁jäsentä	-10.8341
▁saavuttaa	-10.8342
▁turvallisuus	-10.8343
▁asemaa	-10.8343
▁tarvitsee	-10.8344
▁nukku	-10.8344
▁kier	-10.8344
▁lady	-10.8344
▁jalkansa	-10.8345
▁muusta	-10.8348
▁kamera	-10.8348
akaan	-10.8351
▁tunke	-10.8351
▁puhuja	-10.8352
▁kiertä	-10.8353
sestä	-10.8358
yksi	-10.8358
▁levä	-10.8358
▁kardinaali	-10.836
gio	-10.836
oikeuksi	-10.8362
▁keittiö	-10.8363
▁niko	-10.8364
▁liuku	-10.8365
▁nähneet	-10.8365
kes	-10.8366
tetuksi	-10.8366
▁kuvattiin	-10.8367
▁säikäh	-10.8367
▁vajaa	-10.8368
▁vaikutuksesta	-10.8368
▁luonnollisesti	-10.8371
itus	-10.8371
▁osto	-10.8372
▁kovan	-10.8373
listo	-10.8373
kulu	-10.8373
millä	-10.8373
▁korvi	-10.8376
▁huomio	-10.8378
▁hautausmaa	-10.838
key	-10.8384
▁suorittaa	-10.8386
▁eteeni	-10.8386
▁albumilla	-10.8387
▁sokeri	-10.8388
▁kaiku	-10.839
▁kiimaise	-10.839
▁kaava	-10.839
suoja	-10.839
▁jälkeensä	-10.839
▁vaaleissa	-10.8394
▁muotoon	-10.8396
▁cro	-10.84
▁tyydy	-10.8401
▁saksalaiset	-10.8402
git	-10.8402
▁nimitti	-10.8404
▁ansaitse	-10.8404
dessä	-10.8404
▁lopettaa	-10.8406
▁high	-10.8406
▁asettaa	-10.8408
lukujen	-10.8412
▁sairaan	-10.8413
▁luoma	-10.8415
ilo	-10.8416
▁pin	-10.8417
▁menemään	-10.8418
▁päätty	-10.842
▁näkivät	-10.8421
▁osavaltio	-10.8426
nnän	-10.8427
▁silmien	-10.8427
vall	-10.8427
▁katseen	-10.8427
feld	-10.8428
▁domin	-10.8428
▁huomata	-10.8428
▁metsi	-10.8429
paine	-10.843
stri	-10.843
▁nukkui	-10.8431
▁sili	-10.8434
▁pahoin	-10.8434
▁kaivos	-10.8438
debyyttinsä	-10.8438
▁vaikkei	-10.8439
lläni	-10.8439
▁muori	-10.8441
▁olkaa	-10.8442
▁pahe	-10.8443
▁soti	-10.8444
▁club	-10.8447
▁lämmit	-10.8448
▁luci	-10.8449
▁suomalaisia	-10.845
kojen	-10.845
▁osaan	-10.8452
▁yu	-10.8452
▁vaikkakin	-10.8453
▁riita	-10.8454
osia	-10.8456
▁hartioi	-10.8457
▁riste	-10.8461
▁yksinkertaise	-10.8464
lause	-10.8464
▁toisena	-10.8464
▁noiden	-10.8465
▁selviyty	-10.8465
▁miltä	-10.8466
▁saapunut	-10.8469
▁talonpoika	-10.847
▁kansallispuisto	-10.847
▁kesän	-10.8471
tutkimus	-10.8471
▁rukoile	-10.8472
▁kuori	-10.8472
▁varasi	-10.8473
▁maailmaan	-10.8473
▁suljettu	-10.8473
▁marian	-10.8473
▁tietämättä	-10.8474
▁antakaa	-10.8475
nnista	-10.8479
kkeet	-10.8486
▁jatkuu	-10.8487
▁erot	-10.8487
▁iva	-10.8488
▁voimia	-10.8489
▁lahti	-10.8489
▁kannatta	-10.8489
▁metsästä	-10.849
▁tuonne	-10.8491
▁alfred	-10.8492
utin	-10.8492
reja	-10.8494
▁istuin	-10.8497
tso	-10.8498
▁vesa	-10.8498
▁puhdist	-10.8501
das	-10.8502
▁taisteluihin	-10.8502
mond	-10.8502
▁käskyn	-10.8503
video	-10.8507
työtä	-10.8507
ottaa	-10.8507
▁huulia	-10.8509
reen	-10.8509
▁rytmi	-10.8511
▁silmänräpäykse	-10.8513
▁gustaf	-10.8513
yttää	-10.8513
▁kristity	-10.8513
▁ensimäinen	-10.8515
▁pisteen	-10.8515
▁luokka	-10.8517
▁laittaa	-10.8517
qua	-10.852
▁valmisti	-10.8521
▁1900	-10.8521
▁white	-10.8521
▁opti	-10.8524
▁liittyvä	-10.8526
▁ihmetteli	-10.8528
▁uhkaava	-10.8529
lyn	-10.853
▁suudelma	-10.853
huudo	-10.8531
▁omisti	-10.8536
▁yorkissa	-10.8538
▁pun	-10.854
▁polku	-10.8541
issani	-10.8541
llesi	-10.8542
matkalla	-10.8543
▁reservi	-10.8544
▁kuoleva	-10.8544
▁koto	-10.8545
▁yksityiselämä	-10.8546
61	-10.8546
▁lah	-10.8548
▁ennus	-10.8552
soitto	-10.8552
▁christ	-10.8554
▁törmä	-10.8556
▁syistä	-10.8558
stoon	-10.8559
▁tapani	-10.8559
▁luovutta	-10.8559
▁kieltää	-10.8561
▁tunturi	-10.8561
▁pillun	-10.8562
▁siisti	-10.8569
minun	-10.8569
▁elänyt	-10.8569
näyttelijä	-10.857
▁vakaa	-10.857
sessä	-10.8572
itteli	-10.8572
aeaen	-10.8575
▁viro	-10.8576
▁son	-10.8578
▁maalintekijä	-10.8579
▁ola	-10.858
▁kiitä	-10.858
▁scott	-10.858
▁ohjannut	-10.8582
▁put	-10.8582
▁liki	-10.8585
▁viina	-10.8586
toiminnan	-10.8591
▁kuiska	-10.8593
▁metsässä	-10.8593
▁120	-10.8595
tuki	-10.8599
▁levo	-10.8599
kkasi	-10.86
▁rahoja	-10.86
▁turussa	-10.8602
▁1911	-10.8602
lapsi	-10.8603
▁taho	-10.8604
▁välttää	-10.8605
▁edisty	-10.8608
▁käsissä	-10.8608
zu	-10.8608
▁tulipalo	-10.8609
▁kumi	-10.861
▁kasvoille	-10.8613
leita	-10.8617
▁avio	-10.8617
▁horn	-10.8618
▁määrätty	-10.862
▁halveksi	-10.862
tyypi	-10.8621
▁täyteen	-10.8621
▁vaikk	-10.8621
mont	-10.8622
▁ohjelman	-10.8622
▁dvd	-10.8624
▁kykeni	-10.8624
kamari	-10.8624
▁isännän	-10.8627
▁liito	-10.8629
▁edi	-10.863
▁saalii	-10.8632
▁väre	-10.8633
listan	-10.8633
▁kuoro	-10.8635
▁thi	-10.8635
▁vasemmisto	-10.8637
perhe	-10.8639
akka	-10.8639
▁itku	-10.8639
té	-10.864
▁kulkivat	-10.864
▁tuottanut	-10.864
engl	-10.8644
▁seppo	-10.8647
▁pahoi	-10.8647
far	-10.8648
yhteisö	-10.8648
▁käyttänyt	-10.865
isyyttä	-10.8651
▁gun	-10.8651
▁seuraavien	-10.8652
koissa	-10.8652
▁urho	-10.8653
▁varoi	-10.8653
▁pidän	-10.8655
▁kysyä	-10.8655
▁huomaut	-10.8656
▁sairaala	-10.8658
▁teini	-10.8661
▁englantilais	-10.8661
kesä	-10.8662
rahasto	-10.8662
▁tarvitsi	-10.8664
tekniikka	-10.8664
▁markkaa	-10.8665
▁ajettiin	-10.8668
▁maanviljelijä	-10.8669
▁siro	-10.8671
ab	-10.8671
▁kanadalainen	-10.8672
▁kansaa	-10.8675
dyn	-10.8676
putki	-10.8677
▁arkkitehtuuri	-10.8678
▁todiste	-10.8679
▁mala	-10.8679
tykseen	-10.8683
loihin	-10.8686
▁pakaroi	-10.8686
▁eva	-10.8687
▁tapahtumat	-10.8689
▁hard	-10.8689
▁ihmeellis	-10.869
▁lakkautettiin	-10.869
▁kroatia	-10.869
▁samat	-10.8691
▁kostu	-10.8694
▁samannimise	-10.8694
▁muistan	-10.87
▁haapa	-10.8701
▁kirjoittaja	-10.8703
osaston	-10.8704
▁käyttämään	-10.8706
▁liikaa	-10.8708
▁kip	-10.8709
ös	-10.871
▁nää	-10.871
rc	-10.8711
ttäessä	-10.8712
▁iki	-10.8712
▁ukrainan	-10.8712
▁lapsille	-10.8717
▁lukumäärä	-10.8717
▁vako	-10.8719
▁johtoon	-10.8719
▁kadot	-10.8719
jokeen	-10.8719
▁liikkui	-10.8721
▁nis	-10.8724
▁odottamaan	-10.8724
▁viittasi	-10.8725
materiaali	-10.8728
▁vaelta	-10.8729
▁pove	-10.8731
ilun	-10.8732
tieteiden	-10.8733
▁rosvo	-10.8733
▁kainalo	-10.8736
▁alistu	-10.8737
isissä	-10.8737
▁peräti	-10.8738
mäinen	-10.8738
laisille	-10.8738
thi	-10.8741
vyys	-10.8741
sal	-10.8744
▁kyn	-10.8745
lääkäri	-10.8746
miehi	-10.8746
▁vapauden	-10.8747
ukku	-10.8747
▁mielessään	-10.8748
▁marin	-10.8748
▁käänny	-10.8752
▁aasian	-10.8754
▁tapahtuva	-10.876
▁heittää	-10.8761
▁pure	-10.8762
▁tarjoaa	-10.8763
▁ohjaus	-10.8766
▁merkittävi	-10.8767
stetty	-10.877
▁pannut	-10.8771
▁vastauksen	-10.8773
▁sepä	-10.8774
▁elämäni	-10.8774
▁hyväksyi	-10.8775
ness	-10.8775
▁portti	-10.8776
▁sormen	-10.8777
▁nimesi	-10.8779
▁marko	-10.8779
06	-10.878
▁väinö	-10.8782
▁liittyvät	-10.8782
pullo	-10.8783
▁bob	-10.8785
uksena	-10.8789
▁hengitys	-10.8793
ttuu	-10.8794
▁hukku	-10.8794
kirjasto	-10.8794
kaupungin	-10.8796
▁vieraita	-10.8796
reista	-10.8797
▁ollaan	-10.8799
neelle	-10.8801
ministeriö	-10.8801
▁keuhko	-10.8803
▁league	-10.8803
▁sukunimi	-10.8807
▁säännöllisesti	-10.8808
▁tsaari	-10.8811
▁eroa	-10.8814
▁75	-10.8815
▁kanto	-10.8816
ranniko	-10.8816
▁liikettä	-10.8816
ardin	-10.8818
▁esa	-10.882
▁lipun	-10.8822
ajat	-10.8823
▁mieleni	-10.8824
▁siipi	-10.8824
▁poli	-10.8824
▁soolo	-10.8824
▁tällainen	-10.8826
▁alttari	-10.8826
▁suurempaa	-10.8829
ía	-10.883
▁tiedustelu	-10.8831
▁maailmansota	-10.8832
▁määri	-10.8834
▁sytty	-10.8834
▁arkeologi	-10.8835
▁lis	-10.8836
▁avusta	-10.8836
▁taitava	-10.8843
vol	-10.8843
yliopisto	-10.8844
zen	-10.8844
tunne	-10.8846
▁työntä	-10.885
▁mtv	-10.8851
▁kullan	-10.8852
▁merkittäviä	-10.8853
▁sanalla	-10.8854
▁north	-10.8858
utuneet	-10.8859
▁käsitti	-10.8859
▁ote	-10.886
isivät	-10.8863
▁matkalle	-10.8864
elm	-10.8867
▁puut	-10.887
▁tuhansia	-10.8871
▁royal	-10.8871
▁kuivu	-10.8872
väkeä	-10.8872
▁lähdin	-10.8873
tensa	-10.8873
▁suhte	-10.8873
henki	-10.8874
▁ec	-10.8874
▁ulla	-10.8876
▁avoin	-10.8877
▁yleistä	-10.8878
▁hämeen	-10.8878
ohjelman	-10.8878
▁vaadi	-10.8882
▁kätke	-10.8886
▁lumo	-10.8887
suora	-10.8891
▁sängyn	-10.8895
▁mahdollisuus	-10.8895
▁tilanteen	-10.8897
▁vauhtia	-10.8898
▁haaste	-10.8898
korea	-10.8899
▁häviä	-10.89
▁osia	-10.89
▁yksikään	-10.89
▁päällikkönä	-10.89
▁naara	-10.89
▁hyökkäyksen	-10.8901
tot	-10.8902
▁plu	-10.8902
▁paroni	-10.8903
▁nauttia	-10.8905
▁joidenkin	-10.8907
tutkija	-10.8908
▁souta	-10.8912
▁wall	-10.8913
lasi	-10.8913
illään	-10.8915
▁myöhemmä	-10.8917
▁ovesta	-10.8917
▁huulet	-10.8917
▁minussa	-10.8918
–0	-10.8918
▁ongelmia	-10.8918
–17	-10.8922
▁nie	-10.8923
▁ainoan	-10.8925
ence	-10.8929
▁moderni	-10.8931
▁kärsivä	-10.8932
,	-10.8933
▁sievä	-10.8933
leyn	-10.8939
▁unkarin	-10.8939
▁aikanaan	-10.894
▁ulottuu	-10.894
▁1904	-10.894
▁polvilleen	-10.8944
▁oletko	-10.8945
▁ujo	-10.8945
zy	-10.8946
▁syty	-10.8946
▁vari	-10.8946
pohjanmaa	-10.8947
▁siirtä	-10.8949
kim	-10.8951
▁tavo	-10.8952
▁lujasti	-10.8954
▁koura	-10.8955
dr	-10.8956
▁vier	-10.8959
▁tuntematon	-10.896
▁bou	-10.8961
▁rahan	-10.8962
▁järjestetään	-10.8963
▁muodostettiin	-10.8963
▁yllättäen	-10.8964
▁täyden	-10.8965
▁naula	-10.8966
▁markkinoi	-10.8966
▁oltu	-10.8966
▁saarelle	-10.8967
vuoro	-10.8967
▁hallitseva	-10.8968
og	-10.897
▁tarmo	-10.897
kappaleen	-10.8971
▁moraali	-10.8976
▁gui	-10.8976
▁persoona	-10.8981
▁yhteyttä	-10.8986
ssy	-10.8987
▁mars	-10.8987
ple	-10.8988
neuvosto	-10.8988
▁kiertue	-10.8989
▁är	-10.899
▁hiljalleen	-10.8991
lian	-10.8992
▁annetaan	-10.8993
salmen	-10.8994
nas	-10.8995
▁ehto	-10.9005
juuri	-10.9006
jänä	-10.9006
▁pakotti	-10.9007
▁parlamentti	-10.9007
▁minna	-10.9009
ministeriön	-10.901
▁nautinnosta	-10.9012
mpien	-10.9013
▁55	-10.9013
▁voitu	-10.9013
▁silmällä	-10.9014
▁1500-	-10.9015
▁pääni	-10.9016
evi	-10.9017
elius	-10.902
ique	-10.902
jin	-10.902
▁antoivat	-10.9024
koulussa	-10.9028
▁viidestä	-10.9029
nov	-10.903
▁paikalta	-10.9032
▁kielletty	-10.9032
▁vilhelm	-10.9032
▁paavali	-10.9033
▁epäröi	-10.9033
▁metsään	-10.9033
▁epäile	-10.9033
▁menesty	-10.9034
▁köli	-10.9034
ito	-10.9035
viesti	-10.9035
detta	-10.9036
▁rein	-10.9036
▁uskonut	-10.9042
▁huomautti	-10.9043
▁kahle	-10.9044
▁leppä	-10.9044
▁2003.	-10.9045
▁maalle	-10.9046
▁riski	-10.9046
kurssi	-10.905
▁savo	-10.9051
▁takki	-10.9051
kuntia	-10.9052
▁luutnantti	-10.9052
▁napa	-10.9054
lajeja	-10.9054
▁poikani	-10.9055
▁leveys	-10.9057
▁philip	-10.9057
▁haavoittu	-10.9057
▁huolellisesti	-10.9058
▁mik	-10.9059
gle	-10.9061
▁istuivat	-10.9068
▁tarkastel	-10.907
▁hyp	-10.9072
▁mou	-10.9073
▁tasavalta	-10.9073
niminen	-10.9074
▁hyvinkin	-10.9074
▁katsoja	-10.9075
▁huolto	-10.9076
▁nuku	-10.9077
▁free	-10.9081
musiikkia	-10.9082
▁sotaa	-10.9083
▁puuttu	-10.9084
▁mitäs	-10.9086
▁muutoksia	-10.9087
▁hyötyä	-10.9089
▁maakunnan	-10.9092
pr	-10.9095
pelin	-10.9098
vers	-10.9101
▁havaitsi	-10.9102
▁senvuoksi	-10.9102
▁lauantai	-10.9102
▁avain	-10.9102
▁48	-10.9102
▁soturi	-10.9103
▁kalunsa	-10.911
▁taustalla	-10.911
gal	-10.9111
▁kumartui	-10.9112
ted	-10.9112
▁emi	-10.9112
▁auta	-10.9113
▁näh	-10.9114
▁vakuutti	-10.9114
ahdus	-10.9116
istuim	-10.9117
sche	-10.9117
▁jatkamaan	-10.9122
joka	-10.9123
▁vastustaa	-10.9124
▁kreivitär	-10.9126
▁rinnalle	-10.9126
▁vihdoinkin	-10.9128
▁punk	-10.9128
▁keula	-10.9129
▁jokaisella	-10.913
▁mänty	-10.913
▁tukeva	-10.9133
▁tiedetään	-10.9133
▁asumaan	-10.9134
kukka	-10.9138
mmista	-10.9139
loo	-10.9141
▁päivinä	-10.9142
▁prof	-10.9142
aatin	-10.9145
sarjoissa	-10.9146
ug	-10.9146
▁sisältö	-10.9146
uduttua	-10.9146
▁pystyy	-10.9148
▁luullut	-10.9148
▁ryhtyä	-10.9149
▁lentopallo	-10.915
▁keskustan	-10.9151
▁valit	-10.9152
▁kaarina	-10.9154
▁päävalmentaja	-10.9157
pul	-10.9157
▁american	-10.9159
karva	-10.9159
ukseksi	-10.9161
▁vallankumouksen	-10.9162
▁maatila	-10.9164
▁sorme	-10.9164
▁yhdysvaltalais	-10.9164
afrikka	-10.9165
▁puro	-10.9165
mbo	-10.9165
gas	-10.9169
▁mir	-10.9169
▁liikennöi	-10.9172
▁tykistö	-10.9172
▁prosessi	-10.9172
neistä	-10.9172
harju	-10.9174
▁seisoivat	-10.9174
laisesta	-10.9176
gne	-10.9177
▁tim	-10.9181
ystävä	-10.919
▁päämäärä	-10.9192
▁oppilas	-10.9192
laakso	-10.9194
ere	-10.9195
prosessi	-10.9195
▁väisty	-10.9195
▁vallankumous	-10.9195
▁häiritse	-10.9196
▁tahtia	-10.9197
▁rukoili	-10.9197
▁tuntemattoma	-10.92
▁pojalle	-10.9201
kaasu	-10.9202
▁ji	-10.9205
▁muutenkin	-10.9206
muka	-10.9207
▁henkilöitä	-10.9208
▁näyt	-10.9209
▁rao	-10.9209
▁fen	-10.9211
▁hyväili	-10.9212
töntä	-10.9214
ania	-10.9215
▁op	-10.9216
▁puole	-10.9216
▁ehdi	-10.9217
tarha	-10.9219
jina	-10.9219
▁palka	-10.9221
▁ryöstä	-10.9221
▁kyr	-10.9221
roy	-10.9222
thin	-10.9225
▁tielle	-10.9227
▁end	-10.9228
▁mahta	-10.9228
matkan	-10.923
kulku	-10.923
▁albumia	-10.9231
▁(3	-10.9232
sitte	-10.9232
ture	-10.9232
▁tahtoisin	-10.9234
▁jalan	-10.9239
▁vapaaehtois	-10.9241
▁joutua	-10.9241
▁bulgaria	-10.9243
▁mieluummin	-10.9243
ttujen	-10.9248
▁muodosti	-10.9249
etty	-10.9249
▁taru	-10.9251
▁sokea	-10.9251
▁tunteita	-10.9252
▁pelaamaan	-10.9253
▁veneen	-10.9254
▁myöhäis	-10.9255
▁taloa	-10.9256
▁liber	-10.9256
jiin	-10.9257
▁säilyttä	-10.9258
elämää	-10.9259
▁harjoitta	-10.926
▁hallin	-10.9261
▁42	-10.9262
▁tampereella	-10.9269
▁toisti	-10.927
▁jospa	-10.927
▁kyrvän	-10.927
▁francisco	-10.9271
▁ensinkään	-10.9273
neinä	-10.9276
ääni	-10.9277
lot	-10.9278
▁ampui	-10.928
▁ylle	-10.9281
▁jaetaan	-10.9283
▁paikkansa	-10.9283
laatu	-10.9285
▁käänne	-10.9285
▁dal	-10.9286
▁ron	-10.9286
sol	-10.9287
▁housut	-10.9288
oc	-10.9289
▁tottunut	-10.929
telty	-10.9291
▁georg	-10.9291
▁basisti	-10.9292
▁käsikirjoitukse	-10.9293
lah	-10.9296
▁markus	-10.9296
▁isoisä	-10.9299
▁pääsivät	-10.9299
▁voittoa	-10.93
▁tarkoin	-10.9302
▁tuonut	-10.9303
▁arvaa	-10.9305
mil	-10.9305
▁kiista	-10.9306
▁hameen	-10.9309
▁asetu	-10.931
▁satoja	-10.931
▁kart	-10.9315
▁vaikeni	-10.9317
maailman	-10.9319
▁simo	-10.9321
▁neuvoa	-10.9321
▁vit	-10.9322
▁keinu	-10.9323
▁laaj	-10.9324
tuneita	-10.9326
satama	-10.9326
▁lapsensa	-10.9332
▁nauraa	-10.9333
väline	-10.9333
▁dio	-10.9335
▁olekaan	-10.9336
▁näyte	-10.9336
▁yhdestä	-10.9338
▁meta	-10.9338
▁kelpaa	-10.9339
timen	-10.9342
▁pelaajan	-10.9343
▁tunto	-10.9344
▁malta	-10.9345
▁rangaistus	-10.9345
ár	-10.9351
▁pysähdy	-10.9351
▁riippui	-10.9353
isillä	-10.9353
▁mereen	-10.9356
▁kallion	-10.9358
intia	-10.9359
parlament	-10.936
▁eng	-10.9361
▁jugoslavia	-10.9362
▁hoiti	-10.9363
menetelmä	-10.9364
▁komensi	-10.9365
iti	-10.9365
▁voimaan	-10.9365
▁toimittaa	-10.9367
▁2019	-10.9367
▁ohje	-10.9368
tteri	-10.9368
▁kääntää	-10.9369
▁julia	-10.9371
▁mistään	-10.9372
ajalla	-10.9373
telivät	-10.9375
tettuna	-10.9375
oksesta	-10.9376
▁neitsyt	-10.9378
▁koeta	-10.9379
▁jok	-10.9379
▁punaiset	-10.9381
oitus	-10.9385
▁psykologi	-10.9387
▁käyttäen	-10.9389
▁fors	-10.9389
▁tarkoitti	-10.939
▁auttamaan	-10.939
▁%)	-10.9393
ttamista	-10.9393
▁lähetys	-10.9394
▁kovi	-10.9394
ellään	-10.9398
,000	-10.9399
▁horju	-10.94
orin	-10.94
kät	-10.9401
odi	-10.9403
▁oot	-10.9403
▁lopu	-10.9403
▁täytty	-10.9404
▁nauraen	-10.9406
▁teistä	-10.9407
▁yksinään	-10.941
▁erehty	-10.941
sivusto	-10.9411
05	-10.9412
pöytä	-10.9412
▁pidät	-10.9413
▁henkilön	-10.9413
▁kokenut	-10.9416
▁hanki	-10.9416
rich	-10.9416
▁matt	-10.9418
▁frans	-10.9418
▁pete	-10.942
▁hul	-10.9422
▁rod	-10.9422
▁inkeri	-10.9423
▁yhteistyötä	-10.9424
vaaran	-10.9424
▁venäläiset	-10.9424
tavia	-10.9427
▁terva	-10.9428
▁lem	-10.9429
alaa	-10.943
▁kurkku	-10.9434
▁pahasti	-10.9434
▁uskalla	-10.9435
▁kielsi	-10.9435
▁puri	-10.9436
noissa	-10.9436
▁kierros	-10.9436
▁mes	-10.9436
▁kaukaa	-10.9436
▁ystävi	-10.944
▁alkupuolella	-10.944
▁voimassa	-10.9442
joukkueessa	-10.9446
tch	-10.9448
ach	-10.9449
▁katsotaan	-10.9452
▁myöntää	-10.9453
▁uppo	-10.9453
▁asukkaista	-10.9453
▁cy	-10.9458
▁vanhempansa	-10.9458
▁sydney	-10.9458
▁nousin	-10.9465
tapahtuma	-10.9466
▁tarjota	-10.9466
mio	-10.9467
▁rob	-10.9467
aatto	-10.9468
▁puolin	-10.9469
osto	-10.9473
▁avata	-10.9476
▁eurooppa	-10.9477
▁selkään	-10.9477
evan	-10.9477
▁avasin	-10.9478
▁ehkäpä	-10.948
▁osat	-10.948
▁ilmavoimien	-10.9482
▁pauli	-10.9483
▁piirteitä	-10.9483
▁todellinen	-10.9487
▁yhteiskunnan	-10.9488
keet	-10.949
▁ang	-10.949
ttomana	-10.949
▁nykyaika	-10.9491
▁ruotsalaisen	-10.9492
▁elokuvasta	-10.9492
▁pöytään	-10.9492
▁rio	-10.9493
▁sari	-10.9494
lapse	-10.9495
▁venäläisten	-10.9496
▁perustu	-10.9496
▁kosken	-10.9498
▁maito	-10.9499
▁orkesteri	-10.9505
▁todellisuudessa	-10.9506
▁paikoin	-10.9507
▁haihtu	-10.9507
▁hyö	-10.9508
eikö	-10.951
▁kolmessa	-10.951
▁rakastan	-10.951
▁aito	-10.9511
▁glo	-10.9512
tietä	-10.9513
lman	-10.9514
▁sijoitta	-10.9515
▁rakensi	-10.9517
▁2002.	-10.9519
war	-10.9521
maiden	-10.9523
▁tamme	-10.9523
▁rintaa	-10.9524
kkeja	-10.9526
lio	-10.9526
▁kupari	-10.9528
romaani	-10.9529
wick	-10.9531
▁ford	-10.9532
▁työssä	-10.9532
▁vallitsi	-10.9533
omin	-10.9538
▁hidas	-10.9538
▁nime	-10.9538
▁kuollei	-10.9539
▁paikasta	-10.954
iltu	-10.954
▁pelata	-10.9541
yön	-10.9542
armeijan	-10.9543
▁huume	-10.9543
ottelun	-10.9545
▁selälleen	-10.9545
▁osavaltiossa	-10.9546
piirte	-10.9547
▁armas	-10.9548
▁seitsemäs	-10.9554
▁mielipitee	-10.9556
▁grön	-10.9556
▁sulle	-10.9556
▁herättää	-10.9557
▁tupaan	-10.9557
▁kaval	-10.9558
▁esiteltiin	-10.9558
vit	-10.9559
▁65	-10.9561
▁brand	-10.9561
eta	-10.9563
▁tunnustaa	-10.9563
kaarti	-10.9566
nieme	-10.9567
▁messu	-10.957
ulla	-10.9571
▁yhteys	-10.9571
▁ikkunasta	-10.9572
▁riippuva	-10.9572
▁kuvasi	-10.9574
▁kaipaa	-10.9576
▁maajoukkueura	-10.9578
▁kalevala	-10.958
hir	-10.9583
urheilu	-10.9583
▁vapaus	-10.9583
▁boy	-10.9583
▁todistaa	-10.9584
▁hope	-10.9584
▁sydämeni	-10.9585
▁sisälly	-10.9586
▁rosa	-10.9587
kaupan	-10.9589
▁suurimmaksi	-10.9593
syö	-10.9593
▁win	-10.9594
▁katkera	-10.9594
▁keskeisi	-10.9596
▁espoo	-10.9597
».	-10.9598
suuri	-10.9599
siini	-10.96
▁mahdoton	-10.9601
▁tunnetuimpia	-10.9605
ure	-10.9605
▁britannia	-10.9607
▁puutte	-10.9607
päässä	-10.9607
▁power	-10.9607
▁sum	-10.9607
▁esimerkki	-10.9608
skan	-10.9611
listalla	-10.9612
▁vainaja	-10.9612
▁huokasi	-10.9613
paa	-10.9615
▁cur	-10.9616
▁pörssi	-10.9618
▁säilyi	-10.962
tuneena	-10.9621
▁komedia	-10.9621
▁terska	-10.9624
▁hetkenä	-10.9626
▁kärsiä	-10.9626
▁blue	-10.9627
▁ajatuksen	-10.9628
▁painui	-10.9628
▁jousi	-10.9628
▁korkeimmalla	-10.9629
▁ainoatakaan	-10.9629
▁runsas	-10.9629
▁britanniassa	-10.9629
▁lö	-10.9629
neille	-10.963
emmä	-10.963
▁kierroksen	-10.9632
▁keskittyi	-10.9633
▁nopeammin	-10.9633
▁pantiin	-10.9636
▁linnoi	-10.9638
▁kalua	-10.964
▁ominaisuuksia	-10.9642
äkseen	-10.9644
empää	-10.9644
▁nauha	-10.9646
▁1:	-10.9646
lauta	-10.9648
▁sohvalle	-10.9648
ij	-10.9649
▁lentää	-10.9649
▁sada	-10.965
▁xi	-10.965
miten	-10.9651
ikat	-10.9652
▁muistaa	-10.9653
▁tällaista	-10.9653
09	-10.9655
▁tasapaino	-10.9655
▁talosta	-10.9658
▁riippu	-10.9659
öljy	-10.9659
▁itseensä	-10.966
turva	-10.9661
▁tyttöjen	-10.9662
▁egypti	-10.9663
tunto	-10.9663
mattoman	-10.9664
kasvu	-10.9664
▁viimeisenä	-10.9664
▁vaikkapa	-10.9666
▁saksalaisen	-10.9667
▁puuttui	-10.9667
▁kerttu	-10.9668
▁uut	-10.9668
▁upposi	-10.967
▁helma	-10.9673
▁työntää	-10.9674
▁käynti	-10.9674
synty	-10.9676
▁erinomaisen	-10.9676
▁kuvaili	-10.9676
▁virallinen	-10.9678
näyttely	-10.9679
▁luonne	-10.9679
▁äänet	-10.9679
▁samanlainen	-10.9683
▁tasolla	-10.9684
komppania	-10.9685
llisena	-10.9685
tuja	-10.9685
strömin	-10.9685
vik	-10.9687
▁portin	-10.9688
▁suunnitel	-10.969
▁hoh	-10.9691
▁vuosisadan	-10.9692
▁tieteen	-10.9693
divisioona	-10.9696
ilivat	-10.9698
▁hirvi	-10.9698
▁lapseni	-10.97
▁tukholmassa	-10.9701
ssäni	-10.9702
▁finaali	-10.9702
▁molemmilla	-10.9703
▁loppupuolella	-10.9705
▁teema	-10.9705
▁runkosarjassa	-10.9706
▁tavallisi	-10.9707
loita	-10.9709
▁aarte	-10.9711
▁sanot	-10.9711
▁kortti	-10.9714
musiikin	-10.9714
▁kylmän	-10.9718
taide	-10.9719
tuminen	-10.9722
▁sw	-10.9722
muusiko	-10.9723
järjestön	-10.9723
ür	-10.9724
terin	-10.9725
▁ristin	-10.9725
▁pyyhki	-10.9728
▁sparta	-10.9732
▁laka	-10.9733
dos	-10.9734
taulu	-10.9734
tär	-10.9734
▁egyptin	-10.9734
▁berliinin	-10.9734
kisoihin	-10.9735
mmer	-10.9735
▁mustaa	-10.9736
▁urheilija	-10.9737
▁kullia	-10.9738
lyseo	-10.9739
▁matkailu	-10.974
tv	-10.9742
pido	-10.9743
nauha	-10.9743
▁korkealla	-10.9743
mpiin	-10.9745
▁laituri	-10.9746
▁elina	-10.9746
▁toimitti	-10.9749
mani	-10.9749
▁sky	-10.9752
▁ama	-10.9754
▁milla	-10.9754
▁markku	-10.9755
▁miehestä	-10.9756
derin	-10.9757
▁asettu	-10.9758
▁kove	-10.9758
tutkinnon	-10.9759
▁fox	-10.9761
got	-10.9763
▁ennusta	-10.9764
ttavi	-10.9764
▁viiniä	-10.9765
▁ennätys	-10.9766
tarpei	-10.9767
▁tili	-10.9768
▁tultuaan	-10.9772
▁sisälläni	-10.9772
▁inhimillis	-10.9774
elokuvan	-10.9775
▁kivu	-10.9776
maata	-10.9778
▁bull	-10.9778
▁vankila	-10.9781
▁seurue	-10.9783
▁sla	-10.9784
▁seisova	-10.9784
▁kulttuurin	-10.9785
▁kappaleista	-10.9786
▁900	-10.9786
▁lauka	-10.9787
▁mitenkä	-10.9788
▁istuutui	-10.9791
▁1907	-10.9791
▁ehdotukse	-10.9793
kielen	-10.9794
▁palattuaan	-10.9796
00-	-10.9798
▁tuhoutui	-10.9799
kyvy	-10.9799
▁useampia	-10.9801
ela	-10.9802
▁alexander	-10.9803
▁kynsi	-10.9803
▁tarkoitetaan	-10.9804
▁vastapäätä	-10.9804
▁opin	-10.9804
▁markkinoille	-10.9805
▁talonpoikais	-10.9805
rannalla	-10.9806
▁ratkaiseva	-10.9806
▁konttori	-10.9806
▁hetke	-10.981
▁kaksikymmentä	-10.9814
▁kuuntele	-10.9817
▁kannattaja	-10.9817
▁muodostivat	-10.9818
▁senkin	-10.9818
ino	-10.9819
sihteeri	-10.9824
▁lahjoi	-10.9825
istinen	-10.9827
▁vasemmalla	-10.9828
▁reikä	-10.983
▁vallankumoukse	-10.9832
▁kuljettaja	-10.9834
ima	-10.9834
▁säteily	-10.9834
▁mrs	-10.9835
▁karkea	-10.9835
luettelo	-10.9835
▁neliö	-10.9836
▁hanka	-10.9837
vala	-10.9838
▁poltto	-10.9838
▁odottanut	-10.9839
▁äidi	-10.984
▁mike	-10.984
▁kipeä	-10.9842
▁kiertää	-10.9842
pommi	-10.9843
mmissa	-10.9844
käynti	-10.9845
▁nytkin	-10.9845
eistä	-10.9847
▁tahtoa	-10.9848
▁pont	-10.9849
▁tulli	-10.9849
▁sab	-10.985
▁teosta	-10.985
▁kansi	-10.985
▁39	-10.9852
▁näkevä	-10.9853
pra	-10.9854
dre	-10.9855
udet	-10.9855
▁vaihtu	-10.9856
▁käsittelee	-10.9857
▁ystävällisesti	-10.9859
veto	-10.9861
▁harjoitus	-10.9864
▁ruhtinaa	-10.9865
▁kahvia	-10.9868
▁ehdot	-10.9868
▁perustui	-10.9869
lock	-10.9871
▁lamp	-10.9872
▁hitaa	-10.9874
07	-10.9877
▁evankeliumi	-10.9878
▁järjestety	-10.9878
▁loppuottelussa	-10.9883
▁ukon	-10.9884
▁tiedätte	-10.9885
▁hyökkää	-10.9888
▁emil	-10.989
,--	-10.9891
dow	-10.9893
▁mul	-10.9893
▁siv	-10.9894
prosentti	-10.9895
lanti	-10.9895
fors	-10.9896
▁vaasa	-10.9896
▁pystynyt	-10.9896
▁tuotte	-10.9896
▁nat	-10.9898
▁päiviä	-10.9899
▁les	-10.9901
▁mono	-10.9901
▁44	-10.9903
töitä	-10.9903
▁kehittynyt	-10.9903
▁myöhempi	-10.9903
▁yksikkö	-10.9904
▁saatavilla	-10.9904
▁käsivarsi	-10.9904
pil	-10.9904
▁kiirehti	-10.9906
stäni	-10.9907
▁boo	-10.9908
▁julkisesti	-10.9908
▁game	-10.9908
mir	-10.9909
▁aiheesta	-10.9911
▁maaperä	-10.9912
▁päättyy	-10.9912
▁lennä	-10.9913
juhli	-10.9913
▁sekaantu	-10.9914
▁loukka	-10.9916
▁uudistu	-10.9916
▁solmu	-10.9916
▁uudella	-10.9919
▁kunhan	-10.9919
osaa	-10.9919
ussa	-10.9919
puut	-10.992
▁chris	-10.9921
out	-10.9921
▁kuudenneksi	-10.9921
▁virallise	-10.9921
-3	-10.9924
▁unkari	-10.9925
veri	-10.9925
▁ajalta	-10.9926
▁hollywood	-10.9928
▁johtuen	-10.9928
▁gene	-10.993
ington	-10.993
▁menestystä	-10.9931
▁uhkasi	-10.9931
▁kuta	-10.9932
varo	-10.9933
▁päivässä	-10.9933
ksella	-10.9934
toimittaja	-10.9935
▁yo	-10.9935
▁neljännen	-10.9935
afrikan	-10.9937
▁pon	-10.9938
▁yhdistettiin	-10.9939
tuomari	-10.9942
dien	-10.9944
▁häiriö	-10.9947
▁hou	-10.9949
ähtää	-10.9949
mattomia	-10.9951
▁tote	-10.9952
▁kuolee	-10.9953
▁vahvista	-10.9953
aaleja	-10.9954
▁askeleen	-10.9959
▁munaa	-10.9961
▁multa	-10.9962
▁auko	-10.9963
▁henkilöiden	-10.9963
▁island	-10.9969
elokuvassa	-10.9971
▁karkoit	-10.9972
▁sormea	-10.9972
ettua	-10.9973
▁are	-10.9974
▁kongressi	-10.9975
▁64	-10.9977
▁ilmoitta	-10.9978
▁koskeva	-10.9978
▁tulleen	-10.9979
▁ulkomaalais	-10.998
▁eerik	-10.9981
▁osot	-10.9982
pper	-10.9983
▁taisi	-10.9984
▁maantiede	-10.9985
llisyys	-10.9985
▁arvoa	-10.9985
▁ilois	-10.9985
▁näkemään	-10.9985
▁lordi	-10.9986
kirjoitus	-10.9988
lik	-10.999
▁sataa	-10.9992
anssi	-10.9992
▁edeltäjä	-10.9993
simme	-10.9993
▁vaativat	-10.9994
▁dj	-10.9994
lt	-10.9994
kyy	-10.9995
element	-10.9995
▁ukraina	-10.9996
uran	-10.9999
enius	-11
ksiä	-11.0001
▁kulutta	-11.0004
▁kyennyt	-11.0005
linnan	-11.0005
hdys	-11.0008
emmäksi	-11.0008
▁basso	-11.0009
kkeiden	-11.0009
▁akseli	-11.0009
vaali	-11.001
ohjelmaa	-11.001
▁ärsy	-11.0011
▁puita	-11.0013
▁moi	-11.0013
mahan	-11.0014
käytävä	-11.0015
▁tulokset	-11.0016
▁sammal	-11.0017
▁kalifornia	-11.0018
▁soma	-11.0018
järvellä	-11.002
▁mielessäni	-11.0023
▁yleisön	-11.0024
▁voittanee	-11.0024
▁kämmen	-11.0024
▁puhutaan	-11.0025
ttejä	-11.0028
▁tuhka	-11.0029
loissa	-11.003
▁uskalta	-11.0032
▁lajeja	-11.0032
eesi	-11.0033
▁ilmo	-11.0037
▁hyväkseen	-11.0038
▁odota	-11.0038
▁lähden	-11.0039
ikin	-11.004
laiseksi	-11.0046
kola	-11.0046
kkeli	-11.0047
▁tanska	-11.0047
▁esikois	-11.0049
▁hv	-11.0049
▁varasta	-11.005
▁riisui	-11.0052
▁tarpeen	-11.0054
▁miette	-11.0054
radio	-11.0055
▁dollarin	-11.0055
esse	-11.0056
▁kylää	-11.0056
▁tuntemaan	-11.0056
▁bud	-11.0057
misessä	-11.0057
press	-11.0057
▁hockey	-11.0058
össä	-11.0058
▁täydellinen	-11.0059
ensi	-11.006
▁pitäjän	-11.006
▁omaksu	-11.006
▁2000.	-11.0062
▁omaksi	-11.0063
kkonen	-11.0063
▁vahvasti	-11.0065
dian	-11.0066
teollisuuden	-11.0067
▁poliisin	-11.0069
kirjoja	-11.0069
▁aallon	-11.0072
▁alukset	-11.0072
tiloja	-11.0079
väestö	-11.0081
▁lange	-11.0082
▁vladimir	-11.0082
▁oikealle	-11.0082
▁syleil	-11.0082
kuun	-11.0082
▁kaata	-11.0082
▁käytety	-11.0083
▁puiden	-11.0087
▁väkevä	-11.0087
cke	-11.0088
▁opettaa	-11.0088
▁luonnollise	-11.009
▁viettää	-11.0091
ingin	-11.0091
▁kukista	-11.0092
paikkoja	-11.0092
▁unionin	-11.0092
▁kieltäyty	-11.0092
myös	-11.0094
▁rad	-11.0094
▁karhun	-11.0095
meno	-11.0095
▁osoittautui	-11.0098
▁harkit	-11.0098
▁menestyi	-11.0098
äiti	-11.01
▁vapisi	-11.0102
▁rosen	-11.0104
▁marie	-11.0105
▁pilluun	-11.0106
▁kerrassaan	-11.0107
▁veisto	-11.0108
▁ensimmäiseen	-11.0108
reihin	-11.0109
tejä	-11.0109
▁lyhyesti	-11.011
▁ijä	-11.0111
▁ilon	-11.0113
mut	-11.0114
▁vailla	-11.0114
tehtaan	-11.0115
▁christophe	-11.0115
teho	-11.0116
▁palannut	-11.0116
▁pisto	-11.0117
▁hiihto	-11.0117
are	-11.0118
ges	-11.0118
▁saatava	-11.012
dom	-11.0121
▁iloisesti	-11.0122
dasta	-11.0123
▁sakari	-11.0124
tunte	-11.0124
nuorten	-11.0125
▁hot	-11.0125
▁hieta	-11.0127
▁hurska	-11.0129
▁ilmaa	-11.0129
▁välisen	-11.013
▁kunnioitta	-11.013
leet	-11.0131
▁jääkieko	-11.0133
▁avustivat	-11.0133
▁vahvistu	-11.0134
▁käsittelevä	-11.0135
▁palveluksesta	-11.0135
armeija	-11.0136
▁ratsasti	-11.0136
▁takaapäin	-11.0136
aasiassa	-11.0137
▁jalkani	-11.0141
▁joille	-11.0141
▁itsemurha	-11.0142
▁voimin	-11.0142
▁mieleeni	-11.0144
▁purkautu	-11.015
▁valmistautu	-11.0151
▁korkean	-11.0153
kohan	-11.0154
▁vapaaksi	-11.0155
▁eron	-11.0156
▁haukku	-11.0157
▁varpuslintu	-11.0159
▁luokiteltu	-11.0159
▁kenen	-11.0161
▁äänestä	-11.0162
▁työnnö	-11.0164
reille	-11.0164
foni	-11.0165
▁tuntunut	-11.0166
▁kid	-11.0167
▁kappeli	-11.0167
▁sijainti	-11.0168
▁nukkumaan	-11.0169
▁suuntautu	-11.0171
▁espanjassa	-11.0172
nic	-11.0173
käyttöön	-11.0174
▁varsi	-11.0174
▁jäseneksi	-11.0175
▁taido	-11.0175
▁kuula	-11.0181
▁viipuri	-11.0182
▁pataljoonan	-11.0182
▁miljardia	-11.0183
▁parooni	-11.0185
▁toronto	-11.0186
ttomuutta	-11.0186
▁ahvenanmaa	-11.0186
▁kanadassa	-11.0187
▁kauniit	-11.0187
▁rauhallisesti	-11.0189
▁kumppani	-11.0189
▁perhos	-11.0189
maisillaan	-11.0191
▁kiivaasti	-11.0191
single	-11.0194
▁seuraavasti	-11.0194
oidu	-11.0195
mmalle	-11.0196
▁tunnu	-11.0199
lev	-11.0199
▁tuotiin	-11.0201
▁tohtoriksi	-11.0201
▁anders	-11.0202
▁makaa	-11.0203
▁selän	-11.0205
itaan	-11.0206
ob	-11.0209
▁ou	-11.021
▁kuuluvan	-11.021
kata	-11.0211
▁säätiö	-11.0211
▁apostoli	-11.0211
▁pudotuspeleissä	-11.0211
▁sisällissota	-11.0211
▁jatkosodan	-11.0212
lti	-11.0212
▁fra	-11.0213
▁natsi	-11.0213
▁big	-11.0214
▁kansallisen	-11.0215
▁1890	-11.0215
▁tilassa	-11.0219
▁perinteisesti	-11.0222
raati	-11.0222
▁hevosta	-11.0224
▁surmansa	-11.0224
▁käsillään	-11.0224
▁tulevi	-11.0228
▁kuolemaa	-11.023
▁muoti	-11.0231
king	-11.0231
▁sarjatasolla	-11.0232
▁vedet	-11.0235
▁meksiko	-11.0236
▁löytö	-11.0237
▁rajoitta	-11.0239
lerin	-11.0239
▁kohdalle	-11.024
▁uskonnon	-11.024
▁saaden	-11.024
▁tuhatta	-11.0241
▁kalevan	-11.0242
▁rehtori	-11.0242
▁41	-11.0242
▁aura	-11.0243
ffin	-11.0243
▁korkealle	-11.0243
vaihto	-11.0249
tuksiin	-11.0249
▁sijan	-11.025
▁tou	-11.0254
▁kehittämis	-11.0254
▁yhdistetty	-11.0254
klass	-11.0256
▁valmenta	-11.0256
▁kirve	-11.0257
eera	-11.0257
▁luonte	-11.0261
▁otta	-11.0261
▁alex	-11.0261
kle	-11.0261
▁day	-11.0262
tum	-11.0265
soittaja	-11.0267
▁ystävät	-11.0267
llisin	-11.027
▁sali	-11.0271
ehen	-11.0272
▁avioitui	-11.0272
pyr	-11.0274
▁rukous	-11.0275
stedt	-11.0277
▁suhtautu	-11.0277
ši	-11.028
▁maanviljely	-11.0281
▁ristiin	-11.0281
▁yhdistyksen	-11.0282
▁pussi	-11.0283
▁tahdotte	-11.0283
miestä	-11.0287
rov	-11.0289
▁jossakin	-11.0289
▁aga	-11.029
▁raamattu	-11.029
▁erikseen	-11.029
▁alaisuudessa	-11.0291
▁leipä	-11.0292
▁söi	-11.0293
▁mestaruutta	-11.0294
▁raiva	-11.0294
▁välimeren	-11.0295
▁löytynyt	-11.0296
▁ikuise	-11.0297
▁joe	-11.0297
koodi	-11.0297
▁lattialla	-11.0298
▁saappa	-11.0298
hui	-11.0299
oksella	-11.0304
hallinnon	-11.0304
tyivät	-11.0305
▁land	-11.0306
laitoksi	-11.0308
▁lika	-11.031
▁loppua	-11.0312
▁mutisi	-11.0312
▁tuntu	-11.0314
▁henkilöt	-11.0314
päivää	-11.0315
liikenteen	-11.0315
▁muslimi	-11.0316
day	-11.0317
▁jorma	-11.0317
▁palm	-11.032
valtaa	-11.032
▁aleksi	-11.0321
fra	-11.0321
▁voimat	-11.0324
▁katsokaa	-11.0325
▁res	-11.0325
▁hop	-11.0326
▁muuttanut	-11.0327
▁sulla	-11.0329
eltu	-11.0329
▁huomion	-11.033
kio	-11.0331
▁tutkia	-11.0335
järveen	-11.0341
eks	-11.0342
▁halpa	-11.0342
▁tomi	-11.0342
▁parhaat	-11.0342
▁ensimmäiseksi	-11.0343
▁ankarasti	-11.0345
telemaan	-11.0346
▁2001.	-11.0347
▁näköisenä	-11.0351
▁god	-11.0352
▁erotettiin	-11.0352
▁silmän	-11.0353
▁jolta	-11.0354
▁liene	-11.0356
dokument	-11.0356
▁perheensä	-11.0357
wen	-11.0358
▁eläinten	-11.0359
lien	-11.0359
▁ss	-11.036
▁kuivi	-11.0362
▁pyrkivät	-11.0363
–5	-11.0365
▁erehdy	-11.0366
▁havainto	-11.0368
▁ever	-11.0368
▁nimitystä	-11.0368
▁leijona	-11.0369
rejä	-11.0369
▁1909	-11.0369
▁runkkasi	-11.0369
▁lokakuun	-11.037
▁night	-11.0372
▁parantaa	-11.0372
▁itsenäisty	-11.0374
▁professorina	-11.0375
tteleva	-11.0375
▁dick	-11.0376
▁tavallinen	-11.0377
▁long	-11.0378
▁kerrottiin	-11.0378
▁ojenta	-11.0379
▁huora	-11.038
▁ryhmään	-11.0381
▁poista	-11.0381
▁varsinaisen	-11.0383
▁palasivat	-11.0389
▁väkivalta	-11.0393
tuna	-11.0393
▁harma	-11.0393
▁säästä	-11.0394
▁sukupolven	-11.0395
▁adolf	-11.0396
▁avuksi	-11.0396
▁kiinassa	-11.0396
▁ruotsiin	-11.0398
▁huomaan	-11.0401
▁maakunnassa	-11.0402
▁boston	-11.0403
▁erilaiset	-11.0403
▁florida	-11.0404
ruhtina	-11.0407
▁kamppailu	-11.0408
▁mökki	-11.0411
▁entä	-11.0412
▁hampai	-11.0413
▁rakennukset	-11.0421
▁höyhen	-11.0422
▁kääpiö	-11.0422
▁talviolympiala	-11.0422
▁apollo	-11.0422
▁vihollinen	-11.0423
▁mannerheim	-11.0423
02	-11.0424
▁päästyään	-11.0424
är	-11.0427
▁divisioonan	-11.0427
ttomat	-11.0428
▁kyyti	-11.0428
tumaan	-11.0429
▁levinnyt	-11.043
uuni	-11.0431
▁peliä	-11.0431
?	-11.0432
lohko	-11.0433
lahteen	-11.0433
kloori	-11.0434
▁tunno	-11.0434
tarina	-11.0436
▁lasketaan	-11.0437
▁franz	-11.0437
▁tanssia	-11.044
cer	-11.0442
▁linnut	-11.0443
▁muotoa	-11.0443
▁golden	-11.0444
▁lähteet	-11.0444
▁vapaan	-11.0448
▁patsa	-11.0448
▁leipää	-11.0449
▁kiiltävä	-11.0449
pronssia	-11.0451
▁petteri	-11.0455
koit	-11.0456
eur	-11.0459
kuninka	-11.0459
▁johnson	-11.0461
▁bell	-11.0463
tuhatta	-11.0464
▁lennon	-11.0465
▁myrkky	-11.0466
▁toimintaan	-11.0466
▁esiintyvä	-11.0466
▁roger	-11.0468
▁jur	-11.0469
▁maalaiskunta	-11.0472
maja	-11.0476
▁kiihty	-11.0476
▁uro	-11.0476
▁tulin	-11.0477
▁pakene	-11.0477
llisuudesta	-11.0478
valtuusto	-11.0479
▁enään	-11.0484
pien	-11.0485
▁kuningaskunnan	-11.0485
▁laite	-11.0487
▁aikoo	-11.0488
▁mos	-11.0489
▁suju	-11.049
miselle	-11.0491
▁rum	-11.0492
▁vasen	-11.0493
ksenne	-11.0495
▁lea	-11.0495
alueet	-11.0495
head	-11.0498
▁anno	-11.0498
08	-11.0498
▁mennään	-11.0499
▁liikunta	-11.0499
▁kiinteistö	-11.05
▁toisille	-11.0501
istään	-11.0502
▁jerusalem	-11.0502
▁välinpitämättöm	-11.0502
▁semmoisen	-11.0502
▁system	-11.0503
tyneenä	-11.0509
▁menet	-11.0511
▁tori	-11.0517
▁käyttöä	-11.0519
ong	-11.0519
meen	-11.052
▁esko	-11.0521
▁antonio	-11.0522
▁poltta	-11.0526
jääkäripataljoon	-11.0526
▁atomi	-11.0527
▁toteuttaa	-11.0528
▁unohta	-11.0529
▁kummastu	-11.0533
▁alkujaan	-11.0533
▁liiaksi	-11.0534
more	-11.0536
▁pienessä	-11.0537
telivat	-11.0537
tuuri	-11.0537
▁käytön	-11.0538
▁totuus	-11.0538
▁finland	-11.0539
▁tupakka	-11.054
▁ettekö	-11.0543
paita	-11.0543
kymmene	-11.0544
ootti	-11.0544
▁väliä	-11.0545
▁reu	-11.0547
kymmenen	-11.0548
▁merkittävästi	-11.0549
▁tyhji	-11.055
kaudellaan	-11.0551
llisessa	-11.0552
päätöks	-11.0553
▁(16	-11.0554
▁aseita	-11.0555
▁välttämättä	-11.0556
▁kustannus	-11.0557
▁parlamentin	-11.0557
▁rep	-11.0558
▁saavut	-11.0562
utuva	-11.0564
▁mieleensä	-11.0564
anna	-11.0565
▁esillä	-11.0565
▁luotu	-11.0566
▁ympäristön	-11.0567
▁akka	-11.0567
▁herät	-11.0568
▁silla	-11.0569
▁reilu	-11.0569
▁ylivoima	-11.0571
rp	-11.0571
kaisu	-11.0572
▁kukat	-11.0575
▁2018.	-11.0575
▁ora	-11.0575
▁laskeu	-11.058
▁tähte	-11.0582
▁taistelua	-11.0583
▁perjantai	-11.0583
▁1903	-11.0583
▁suutu	-11.0585
▁kiireesti	-11.0586
tuneen	-11.0587
▁lapsena	-11.0588
▁kokee	-11.0589
▁syöksyi	-11.0594
isyyden	-11.0594
▁1940-	-11.0595
▁poikia	-11.0595
nis	-11.0596
▁suuresta	-11.0597
mella	-11.0597
▁vartta	-11.0598
▁muutto	-11.0598
▁alueita	-11.0599
▁edellisenä	-11.06
näytelmä	-11.0601
paikkana	-11.0602
▁piirust	-11.0605
▁näkyvä	-11.0606
▁puolisonsa	-11.0608
▁voimansa	-11.0609
▁psyko	-11.061
▁metri	-11.061
▁surkea	-11.0613
▁pelaava	-11.0615
ukko	-11.0615
stossa	-11.0616
▁häpy	-11.0617
itsh	-11.0617
▁muovi	-11.0618
ttelemään	-11.0618
▁saarta	-11.0618
▁tärkeitä	-11.0619
ppel	-11.0619
elmia	-11.0619
▁istuva	-11.0624
▁tör	-11.0625
▁näyttele	-11.0628
▁palava	-11.0629
▁tytärtä	-11.0629
ruskea	-11.063
ikke	-11.063
▁viihty	-11.0632
▁sär	-11.0632
▁norjassa	-11.0632
▁eric	-11.0633
▁jääneet	-11.0634
kkoa	-11.0636
▁serbia	-11.0636
▁jalkoväli	-11.0637
▁sidottu	-11.0637
▁43	-11.0638
▁jordan	-11.0638
▁toisi	-11.0638
▁tavattoman	-11.0639
▁vahti	-11.0639
▁entisestään	-11.064
▁totu	-11.0642
▁jumalanpalvelu	-11.0643
▁kuus	-11.0644
▁kadu	-11.0645
▁brittiläisen	-11.0645
▁sten	-11.0647
▁turnauksessa	-11.0648
▁sivistys	-11.0648
ionin	-11.0649
▁humala	-11.065
▁hyvällä	-11.0652
▁pyysin	-11.0653
▁kuuba	-11.0654
ugh	-11.0656
▁huomattavi	-11.0657
joukkueeseen	-11.0658
▁suh	-11.0658
▁jeesuksen	-11.0658
▁urku	-11.0659
▁kadun	-11.0662
▁out	-11.0663
lar	-11.0664
▁etsiä	-11.0665
▁kolumbia	-11.0665
▁alankomaiden	-11.0666
▁valaistu	-11.0667
▁kysyy	-11.0673
▁roomassa	-11.0673
▁nautin	-11.0674
▁surullise	-11.0675
▁valioliiga	-11.0679
▁selitys	-11.068
studio	-11.0684
▁paista	-11.0688
tapaa	-11.0689
verin	-11.0689
dio	-11.069
itz	-11.0691
▁pappila	-11.0692
ksessä	-11.0693
▁roikku	-11.0695
▁pyr	-11.0695
▁1899	-11.0695
▁sisältävä	-11.0696
▁rekisteröi	-11.07
▁keskustelua	-11.07
▁vajo	-11.0701
▁täy	-11.0707
▁käyty	-11.0708
siirto	-11.071
kuningas	-11.0711
▁uneksi	-11.0711
▁into	-11.0712
▁lisätä	-11.0714
▁yhdistelmä	-11.0717
▁kokous	-11.0717
▁puristu	-11.0719
alaiset	-11.0719
▁vakiintu	-11.072
▁vedessä	-11.0721
▁hevoset	-11.0721
▁syliinsä	-11.0722
▁tilaisuutta	-11.0722
▁sävelsi	-11.0724
eo	-11.0725
yde	-11.0725
▁uudesta	-11.0725
▁astua	-11.0728
▁kartan	-11.0728
▁fro	-11.0731
▁naida	-11.0731
keski	-11.0732
antti	-11.0732
▁tulvi	-11.0733
▁tallinna	-11.0733
▁joissakin	-11.0733
▁päätänsä	-11.0734
▁pelkkä	-11.0736
▁ruumista	-11.0737
oikeudet	-11.0738
▁moskovassa	-11.0739
mittari	-11.0739
vään	-11.0741
ulo	-11.0742
rakenne	-11.0744
▁jere	-11.0744
aeae	-11.0745
jalo	-11.0746
▁rannikolla	-11.0747
▁kysymykseen	-11.0748
▁viereise	-11.0748
▁unelma	-11.0748
▁elämäkerta	-11.0749
▁jes	-11.0749
selkä	-11.0752
▁suomalaista	-11.0756
▁silmiään	-11.0757
▁kiinnostunut	-11.0758
▁vartio	-11.0758
oosi	-11.076
tasango	-11.0761
▁vesistössä	-11.0761
▁wood	-11.0763
▁haltuun	-11.0764
lam	-11.0764
ppas	-11.0765
▁pieneen	-11.0765
gun	-11.0766
▁aineen	-11.0768
▁asemassa	-11.0769
▁rakastava	-11.077
▁kiiva	-11.0771
gerin	-11.0772
▁katariina	-11.0774
▁siperia	-11.0775
▁mario	-11.0776
▁kertomus	-11.0776
▁lammen	-11.0776
johdo	-11.0777
ath	-11.0777
kilpailuihin	-11.0778
▁voimakkaan	-11.0779
suhtee	-11.0779
▁kanka	-11.078
listi	-11.0781
▁muttei	-11.0781
▁päätoimittaja	-11.0782
moinen	-11.0784
▁ajatuksensa	-11.0787
tsch	-11.0789
▁päätökse	-11.079
▁sukupuoli	-11.0793
▁saaria	-11.0794
▁nostin	-11.0795
▁kerroin	-11.0796
markkinoi	-11.0797
▁partio	-11.0797
vyöhykke	-11.0798
idae	-11.0798
▁tuloa	-11.08
▁hc	-11.0802
impiin	-11.0802
rakennuksi	-11.0803
ark	-11.0804
tetyn	-11.0804
▁itäpuolella	-11.0805
▁klassise	-11.0805
▁säveltä	-11.0806
wä	-11.0806
illy	-11.0807
▁korea	-11.0808
▁sanottava	-11.0808
▁tuhoutu	-11.081
▁fan	-11.081
bul	-11.0812
ffe	-11.0815
▁brasilian	-11.0816
▁piiska	-11.0817
kuvia	-11.0817
sov	-11.0817
▁ilmestyy	-11.0818
▁vapaute	-11.0818
▁kulkevat	-11.082
▁huolen	-11.0821
▁ima	-11.0821
▁paikallaan	-11.0823
▁turnaus	-11.0825
▁tärkeimmät	-11.0826
▁riittää	-11.0829
▁sarjaa	-11.0829
▁johtanut	-11.083
▁wilson	-11.083
▁2009–2010	-11.083
▁kävele	-11.0831
▁nuoruus	-11.0836
▁saunan	-11.0837
▁soul	-11.0838
ryhmään	-11.0838
oida	-11.0842
▁reh	-11.0842
▁olevani	-11.0844
▁kannatti	-11.0846
ward	-11.0846
tae	-11.0849
▁lähtöä	-11.0851
tavaksi	-11.0852
▁kuningaskunta	-11.0854
▁laulua	-11.0855
▁perinteise	-11.0856
▁harvinainen	-11.0857
▁otaksu	-11.0858
▁itsenäinen	-11.0858
▁puolestani	-11.086
sala	-11.0862
▁47	-11.0865
kartano	-11.0867
▁hiippakunnan	-11.0869
▁köyhi	-11.087
ttaneen	-11.0873
▁pori	-11.0875
▁asuva	-11.0876
▁asetettiin	-11.0876
▁kohdat	-11.0878
kkiä	-11.0878
häiriö	-11.0879
tetyt	-11.0879
pio	-11.088
tiä	-11.0883
▁sulttaani	-11.0885
▁jokaisessa	-11.0885
▁sänkyyn	-11.0889
▁1870	-11.0889
▁paljas	-11.0889
▁rajoittuu	-11.0889
▁maailmancupissa	-11.0891
▁ulottuva	-11.0892
deja	-11.0893
▁luvannut	-11.0896
▁puuttuu	-11.0899
▁syvästi	-11.09
tausta	-11.09
▁elisabet	-11.09
▁kuulen	-11.09
kanavalla	-11.0901
▁52	-11.0902
▁kertomukse	-11.0905
merkkejä	-11.0906
▁henri	-11.0907
▁vaarallise	-11.0908
▁voittoon	-11.0908
vyö	-11.0909
▁bat	-11.0909
▁nah	-11.0909
▁lyk	-11.0911
artagnan	-11.0913
▁käännös	-11.0913
▁rukoukse	-11.0914
▁menimme	-11.0915
suon	-11.0916
artisti	-11.0917
▁pikemmin	-11.0917
▁herku	-11.0918
ivaa	-11.0919
▁selässä	-11.0919
▁aukea	-11.0919
▁persia	-11.0922
▁piiriin	-11.0922
▁karjala	-11.0922
tuuli	-11.0924
▁uupu	-11.0925
▁jacob	-11.0927
▁pam	-11.0927
tuottee	-11.0927
▁valtakuntaa	-11.0933
▁märkä	-11.094
▁pomp	-11.094
cs	-11.0941
▁nintendo	-11.0941
2)	-11.0942
▁tavoite	-11.0944
▁young	-11.0946
▁seitsemä	-11.0947
puvussa	-11.0949
▁elokuun	-11.0951
joukkojen	-11.0951
▁nolla	-11.0952
▁bändi	-11.0956
▁ansa	-11.0957
▁tero	-11.0958
▁ihmisille	-11.096
▁moitti	-11.096
▁hahmon	-11.096
▁lääkärin	-11.096
▁mielelläni	-11.0961
▁alma	-11.0961
▁rub	-11.0962
▁teologi	-11.0964
▁liukas	-11.0965
▁nouda	-11.0967
kerros	-11.0968
ilmo	-11.0968
tettua	-11.0968
▁tappoi	-11.097
▁nolo	-11.097
tani	-11.0971
bs	-11.0972
▁päävalmentajana	-11.0972
▁1896	-11.0973
mistään	-11.0973
▁politiikka	-11.0973
▁haudan	-11.0974
▁vihkiminen	-11.0976
▁suloise	-11.0976
▁tehtäviä	-11.0979
▁matkaan	-11.098
▁heiltä	-11.0986
neuvo	-11.0986
▁laiha	-11.0987
▁mielenkiinto	-11.0987
▁syksyn	-11.0989
▁aukko	-11.0989
tajien	-11.0989
▁sanokaa	-11.0992
ikku	-11.0992
▁pehme	-11.0995
▁hävittä	-11.0998
kuljettaja	-11.0999
vö	-11.1005
▁noista	-11.1006
▁tunnelma	-11.1006
▁auttanut	-11.1007
tier	-11.1009
viiva	-11.1009
▁suojele	-11.1011
▁laitos	-11.1012
▁samasta	-11.1013
▁nan	-11.1015
▁sund	-11.1016
zza	-11.1016
▁australiassa	-11.1017
venäjän	-11.1018
▁was	-11.1018
▁lauluja	-11.1019
koihin	-11.102
▁täys	-11.1022
hamin	-11.1022
▁englanti	-11.1023
▁hyönteis	-11.1023
▁kääri	-11.1024
▁latva	-11.1025
takki	-11.1026
▁pääsarjassa	-11.1027
▁tyyni	-11.1027
ound	-11.1028
▁väittää	-11.1029
▁leske	-11.103
▁tuloksena	-11.103
▁roolissa	-11.103
▁äitiä	-11.103
▁oltuaan	-11.1032
peleissä	-11.1034
▁vieraat	-11.1035
▁gabriel	-11.1036
▁menettänyt	-11.1037
▁hius	-11.1037
▁vanhasta	-11.1038
terve	-11.104
▁paalu	-11.1042
mänä	-11.1043
ikot	-11.1043
karsin	-11.1043
ikäinen	-11.1046
alueilla	-11.1047
ttomuuden	-11.1047
▁suosiota	-11.1047
ksista	-11.1048
päähän	-11.1049
▁nou	-11.1051
▁version	-11.1052
▁ajanut	-11.1056
▁rantaviivan	-11.1057
etto	-11.1057
▁viikossa	-11.1059
▁vaihtui	-11.106
ijan	-11.1061
▁br	-11.1062
org	-11.1063
▁oon	-11.1074
rintama	-11.1074
▁otetaan	-11.1078
energia	-11.1079
▁hiljainen	-11.108
▁pysyy	-11.108
▁merkitty	-11.1081
▁klitorikse	-11.1083
▁söder	-11.1083
2:	-11.1083
▁siit	-11.1083
▁lewis	-11.1083
▁kritisoi	-11.1083
▁kylliksi	-11.1084
nik	-11.1086
▁ateria	-11.1086
impana	-11.1086
▁härkä	-11.1088
▁1000	-11.1088
marin	-11.109
lip	-11.109
ttävää	-11.1091
▁koskee	-11.1094
back	-11.1095
kelpo	-11.1096
▁työntö	-11.1096
▁kiihot	-11.1096
nmukais	-11.1097
▁murska	-11.1097
cour	-11.1097
▁lontoo	-11.1099
▁siirtyivät	-11.1099
▁ominaisuuksi	-11.11
▁zu	-11.1103
tettyä	-11.1103
▁avautu	-11.1103
suojelu	-11.1105
vaihdo	-11.1107
▁nba	-11.1107
▁sisarensa	-11.1107
▁wä	-11.1108
syn	-11.1109
tyksessä	-11.111
osin	-11.111
kuvio	-11.1111
▁kiinnitetty	-11.1111
▁korkeimman	-11.1112
stön	-11.1115
▁näyttävät	-11.1115
▁jäsenten	-11.1116
▁pöly	-11.1116
sey	-11.1118
▁cat	-11.1118
rot	-11.112
▁nick	-11.112
▁hirviö	-11.112
suutta	-11.1123
▁alli	-11.1125
taipale	-11.1125
▁sanojen	-11.1127
ikasta	-11.1127
▁seurasivat	-11.1128
▁pr	-11.1129
▁lukenut	-11.1132
▁pöydällä	-11.1133
▁tunnusti	-11.1133
▁perheeseen	-11.1134
rannan	-11.1135
▁kodin	-11.1135
▁teatterin	-11.1136
▁täyde	-11.1136
kkaiden	-11.1136
▁laukesi	-11.1137
kansan	-11.1137
▁asento	-11.1137
linin	-11.1139
ukselta	-11.114
▁uudista	-11.114
aineiden	-11.114
▁matkaansa	-11.114
▁prote	-11.114
▁kurssi	-11.1142
▁(;	-11.1143
▁ammattilaisura	-11.1143
ttuun	-11.1144
▁asiantuntija	-11.1145
▁finaalissa	-11.1152
▁lyhenne	-11.1152
varasto	-11.1152
▁tavannut	-11.1154
▁roi	-11.1156
kreik	-11.1156
▁wild	-11.1156
▁poliittinen	-11.1162
ever	-11.1162
▁(4	-11.1163
mark	-11.1164
shire	-11.1164
llisuuden	-11.1164
▁työntyi	-11.1164
lehteä	-11.1165
sairaala	-11.1166
▁jakautu	-11.1166
▁sanotu	-11.1166
▁ylhäällä	-11.1168
stunut	-11.1169
venäjä	-11.1169
▁laitoin	-11.117
omistaja	-11.117
▁tähteä	-11.1172
▁death	-11.1173
▁menisi	-11.1174
▁iltaa	-11.1175
stellut	-11.1175
▁suorana	-11.1176
▁saksaan	-11.1176
▁kyyneleet	-11.1176
▁pinnan	-11.1178
▁yhteistyössä	-11.1179
–15	-11.1179
▁kotoa	-11.1179
▁runkosarjan	-11.1179
▁käsitys	-11.1184
lampi	-11.1184
▁nimiä	-11.1184
kaveri	-11.1184
▁albumilta	-11.1185
▁paris	-11.1186
▁italialais	-11.1186
tämään	-11.1189
▁kalpe	-11.1189
▁sarjataso	-11.1189
instituuti	-11.1192
▁tulosta	-11.1193
tuessa	-11.1195
salon	-11.1195
▁kiinnosta	-11.1197
▁ikkunoi	-11.1198
▁pidety	-11.1198
▁huonekalu	-11.1201
mmilla	-11.1201
ttamiseen	-11.1204
talous	-11.1204
▁kovettu	-11.1207
▁mieti	-11.1208
vahti	-11.1208
omainen	-11.1209
▁kodi	-11.1212
ihdu	-11.1214
▁pär	-11.1214
▁tukki	-11.1214
ministerinä	-11.1217
rille	-11.1217
▁päättivät	-11.1218
kkään	-11.1219
▁pelkään	-11.1222
ovitš	-11.1222
▁ylemmä	-11.1222
▁ulo	-11.1224
teissa	-11.1224
▁askele	-11.1224
▁with	-11.1224
▁irvi	-11.1224
▁fantasia	-11.1226
▁tonnia	-11.1227
▁menettely	-11.1228
▁46	-11.1229
▁kellari	-11.123
▁painoin	-11.123
▁käsiään	-11.1231
▁elokuvia	-11.1231
▁haudattu	-11.1235
▁voimakkai	-11.1235
▁espoon	-11.1235
senin	-11.1238
tina	-11.1239
▁kuningattaren	-11.124
▁huonetta	-11.1241
virasto	-11.1242
▁sosiali	-11.1245
▁kaikkiin	-11.1247
▁seksuaali	-11.1247
▁tutustui	-11.1247
alueita	-11.1249
▁3:	-11.125
▁menestykse	-11.1251
nuori	-11.1254
arm	-11.1254
▁yksinkertainen	-11.1255
▁kreeta	-11.1258
ioni	-11.1258
▁suoraa	-11.1259
pes	-11.126
▁christian	-11.126
▁dy	-11.1261
▁1998.	-11.1261
▁tältä	-11.1261
▁kh	-11.1262
neella	-11.1262
▁kiittää	-11.1263
luvut	-11.1263
▁mielikuvitukse	-11.1264
▁tutkinto	-11.1265
▁kulkenut	-11.1267
▁perustaa	-11.1268
-4	-11.127
kän	-11.127
▁suom	-11.127
vor	-11.1271
▁näette	-11.1271
iltiin	-11.1272
pesä	-11.1273
▁kammo	-11.1275
osiin	-11.1276
▁liittyviä	-11.1278
yhdistyksen	-11.1279
▁entiset	-11.1279
▁ateena	-11.128
▁niemi	-11.1281
▁taida	-11.1283
▁vedenpinnan	-11.1284
▁whi	-11.1284
▁huuli	-11.1284
▁jokseenkin	-11.1285
aikaan	-11.1286
▁1898	-11.1287
▁ilmoitettiin	-11.1287
luistelu	-11.1287
laisilla	-11.1288
▁täyte	-11.129
tiedettä	-11.129
▁merkkejä	-11.1291
▁valmentajana	-11.1295
▁kulkemaan	-11.1296
taiteen	-11.1298
▁kalenteri	-11.1299
tsija	-11.13
uur	-11.13
▁hallussa	-11.13
▁paeta	-11.13
▁luovutti	-11.1302
▁hala	-11.1304
▁matkustaa	-11.1305
vig	-11.1305
▁tuhla	-11.1307
▁keikka	-11.1307
oppaa	-11.1311
▁tietenkin	-11.1313
▁siir	-11.1315
▁taaskin	-11.1316
▁ik	-11.1317
kirje	-11.1317
▁phil	-11.1318
▁veljen	-11.1319
sitä	-11.1319
eltiin	-11.1319
ruoka	-11.1321
▁hiukkas	-11.1322
▁nuolla	-11.1326
▁lähtevät	-11.1326
▁vanhaan	-11.1326
▁kaksitoista	-11.1327
▁kolmio	-11.1328
▁juokse	-11.1328
▁sijoit	-11.1328
▁é	-11.1328
▁portugalin	-11.1328
ranska	-11.1329
▁mieliala	-11.1331
▁hih	-11.1331
vuuden	-11.1333
läisen	-11.1334
▁tuski	-11.1335
▁kuh	-11.1337
palo	-11.1341
▁nas	-11.1341
▁2011–2012	-11.1342
ksestä	-11.1347
▁työskentelee	-11.1347
▁jälkiä	-11.1347
järjestelmää	-11.1348
suhteita	-11.1348
▁kehittää	-11.1349
▁vedä	-11.135
sul	-11.1352
▁ymmärrän	-11.1352
udin	-11.1353
▁siirtää	-11.1354
tius	-11.1356
▁sip	-11.1357
miaan	-11.1357
▁talve	-11.1359
▁kehitetty	-11.1363
▁aikuisten	-11.1363
▁josé	-11.1364
▁sininen	-11.1366
▁aiko	-11.1368
selän	-11.1368
▁herr	-11.1368
▁järjestön	-11.1369
▁if	-11.137
▁(_	-11.1371
▁mummo	-11.1371
▁1902	-11.1372
▁karsiutui	-11.1373
▁mato	-11.1375
▁lakki	-11.1375
kuvaa	-11.1376
▁1860	-11.1376
▁ahtaa	-11.1378
isyydestä	-11.1378
▁vaihtaa	-11.138
▁testi	-11.1382
▁paljasti	-11.1383
▁tuore	-11.1385
▁lakia	-11.1385
▁rooma	-11.1386
▁nokka	-11.1386
puolinen	-11.1387
▁vr	-11.1387
oliitti	-11.1389
▁kaja	-11.139
▁lukko	-11.139
▁muodostunut	-11.1392
▁tw	-11.1396
ahtaa	-11.1397
▁tony	-11.1398
neessa	-11.1401
▁lopettanut	-11.1402
▁antero	-11.1402
▁sotien	-11.1404
▁hyväile	-11.1405
▁melu	-11.1407
▁gold	-11.141
▁kaikk	-11.1411
udi	-11.1415
tettuaan	-11.1415
▁hankkee	-11.1416
▁koru	-11.1418
▁kisojen	-11.1418
suur	-11.142
cht	-11.142
muun	-11.1421
▁nik	-11.1424
reikää	-11.1424
aseman	-11.1425
▁vartaloa	-11.1428
▁od	-11.1428
▁sanomaan	-11.143
▁2010–2011	-11.1431
▁pakistan	-11.1431
▁johda	-11.1432
▁1897	-11.1433
avat	-11.1434
▁äijä	-11.1441
▁aasi	-11.1442
▁juan	-11.1443
sir	-11.1445
liikkee	-11.1446
▁kevyesti	-11.1447
▁neljään	-11.1447
▁kotka	-11.1449
▁aka	-11.145
▁osake	-11.145
alusta	-11.1451
▁neljästä	-11.1452
sodan	-11.1452
▁honka	-11.1452
dik	-11.1453
kerin	-11.1453
▁keskeise	-11.1453
▁laadu	-11.1454
▁terveyden	-11.1458
koneita	-11.1458
▁veikkausliiga	-11.1459
säätiö	-11.146
▁vakavi	-11.146
▁erotti	-11.146
▁laajenta	-11.1461
▁suinkin	-11.1462
▁piippu	-11.1462
▁voitaisiin	-11.1462
sylinteri	-11.1462
▁sytyttä	-11.1463
▁ehdottomasti	-11.1464
▁sanansa	-11.1464
suhde	-11.1464
tuvan	-11.1465
slav	-11.1466
▁kovana	-11.1466
▁sihteeri	-11.1468
▁juonta	-11.147
lju	-11.1471
▁pape	-11.1472
▁säilyttää	-11.1472
▁stan	-11.1475
vuosina	-11.1475
▁elossa	-11.1475
hypy	-11.1482
amiini	-11.1483
▁ammo	-11.1483
▁liv	-11.1484
▁tuka	-11.1486
▁nuolin	-11.1487
▁jostain	-11.1488
▁nälkää	-11.1488
▁taidemaalari	-11.1489
▁heinäkuun	-11.149
▁louhi	-11.149
▁raskaasti	-11.1491
▁puhtaaksi	-11.1491
▁suomesta	-11.1491
▁syyskuun	-11.1491
▁ruske	-11.1492
nnyt	-11.1492
▁jr	-11.1493
▁kristian	-11.1493
▁asukkaan	-11.1495
▁monipuolis	-11.1496
▁petri	-11.1497
▁artisti	-11.15
▁michel	-11.1501
tettuja	-11.1502
▁putki	-11.1505
▁sekuntia	-11.1507
uute	-11.1507
koneen	-11.1507
▁runoja	-11.1509
mättömän	-11.1509
pelissä	-11.151
▁todistus	-11.151
▁pidin	-11.1511
▁suk	-11.1512
▁luokkaa	-11.1515
▁työntekijä	-11.1516
▁metsästäjä	-11.1517
▁nuoria	-11.1518
▁suunsa	-11.1518
▁edvard	-11.1519
▁joutsen	-11.1519
▁näytellyt	-11.1519
▁esikunta	-11.152
▁jatkosopimuksen	-11.152
▁rakennuksia	-11.152
▁kasvo	-11.152
htava	-11.1524
▁sijoittuu	-11.1531
▁erästä	-11.1532
kummu	-11.1536
▁kuulua	-11.154
ote	-11.1541
▁hauto	-11.1541
jul	-11.1544
akatemian	-11.1544
unsa	-11.1546
kerho	-11.1548
oso	-11.1548
konsekraattorina	-11.1548
▁kärsinyt	-11.1548
rikko	-11.1549
▁morsian	-11.1549
▁saatana	-11.1549
▁lännen	-11.155
1:	-11.1551
▁gy	-11.1552
▁nimestä	-11.1553
▁ilmestynee	-11.1556
▁touhu	-11.1557
aceae	-11.1558
▁haluaisi	-11.1558
▁pienempiä	-11.1558
▁täydessä	-11.1559
▁hiljaista	-11.1559
▁hylkää	-11.1561
daan	-11.1562
▁kuolemasta	-11.1563
uhun	-11.1567
▁menossa	-11.1568
▁home	-11.1569
ketta	-11.1569
▁salmi	-11.157
▁menestynei	-11.1572
uudelle	-11.1573
▁viestin	-11.1574
▁kummallise	-11.1574
▁viri	-11.1575
▁kevä	-11.1575
▁maajoukkueen	-11.1576
kelta	-11.1578
▁väitöskirja	-11.1578
▁2014–2015	-11.1579
gna	-11.1579
▁pienois	-11.1579
▁main	-11.1579
▁paavin	-11.1579
▁messi	-11.1582
▁rumpu	-11.1583
▁kaluani	-11.1587
▁tape	-11.1587
▁ympärillään	-11.1589
▁51	-11.159
▁wii	-11.159
stansa	-11.1591
▁joukkuekilpailu	-11.1592
▁dub	-11.1592
plan	-11.1593
▁lima	-11.1594
▁kiusaa	-11.16
osien	-11.1601
▁pimeässä	-11.1601
▁hoitaja	-11.1605
03	-11.1605
▁imu	-11.1606
▁1,5	-11.1607
▁luostarin	-11.1607
▁tarinoi	-11.1607
▁suojeluskunta	-11.1608
▁maailmancupin	-11.161
▁olevasta	-11.1612
▁antava	-11.1614
▁sinäkin	-11.1615
▁pakolais	-11.1618
▁fort	-11.1618
▁fle	-11.1623
▁adam	-11.1624
▁linnoitus	-11.1626
▁pyör	-11.1627
▁fr	-11.1628
▁jäykkä	-11.1628
▁käsitteli	-11.1628
▁sca	-11.1629
▁ajamaan	-11.1629
▁tapahtu	-11.1629
▁ps	-11.163
▁rom	-11.163
yhtymä	-11.1631
▁fred	-11.1632
▁sijaitsevan	-11.1634
▁liigassa	-11.1634
▁renki	-11.1635
▁olympiavoittaja	-11.1638
▁jostakin	-11.1639
▁hiljaisuus	-11.164
▁kartta	-11.1642
▁historiassa	-11.1643
kirjoituksi	-11.1644
▁nostettiin	-11.1647
▁portaita	-11.1649
▁kohtasivat	-11.1649
kova	-11.165
▁gau	-11.1657
▁luonnossa	-11.1659
ous	-11.1661
▁viska	-11.1661
▁sisältävät	-11.1663
▁vaari	-11.1664
cio	-11.1666
kho	-11.1666
▁lyijy	-11.1668
▁viitta	-11.1668
lähte	-11.1668
▁seitsemänneksi	-11.1669
▁itsenäisyys	-11.1669
▁ensimäisen	-11.167
▁täytynyt	-11.167
ano	-11.1672
▁olga	-11.1672
ryhty	-11.1672
paperi	-11.1672
▁1880	-11.1674
▁singlenä	-11.1675
▁jona	-11.1675
neste	-11.1683
istus	-11.1686
▁kum	-11.1688
▁peittää	-11.1691
▁olipa	-11.1691
▁hiuksia	-11.1691
▁tehokkaa	-11.1694
▁prikaati	-11.1695
eitä	-11.1696
▁rem	-11.1696
▁mongoli	-11.1696
▁nil	-11.1696
▁fal	-11.1696
tettavaksi	-11.1697
▁etäis	-11.1697
▁lehtori	-11.1698
▁slovakia	-11.1699
analyysi	-11.1699
▁ristiriita	-11.1699
▁riveihin	-11.1699
▁toisilleen	-11.1699
▁sven	-11.1699
esen	-11.1699
löydö	-11.1699
▁sika	-11.17
▁kokonaisuudessa	-11.1701
▁länsipuolella	-11.1701
▁kauniisti	-11.1701
dic	-11.1702
▁sattuu	-11.1704
teltava	-11.1704
▁purettiin	-11.1705
▁kalusto	-11.1707
▁mainita	-11.1707
▁eno	-11.1707
▁edel	-11.1708
▁hyödyntä	-11.1709
tekniika	-11.1709
▁samoihin	-11.171
teatterissa	-11.171
▁aseen	-11.1711
paikalle	-11.1712
▁85	-11.1712
▁kylmää	-11.1713
▁hautajais	-11.1714
himo	-11.1714
▁poliittisen	-11.1714
▁alueet	-11.1716
järv	-11.1716
▁tarkkaan	-11.1717
▁käte	-11.1718
▁siirtolais	-11.172
▁kyvy	-11.1723
▁bry	-11.1723
▁karsinta	-11.1724
▁tavattu	-11.1725
▁elon	-11.1726
ssonin	-11.1727
▁1996.	-11.1728
joihin	-11.1728
▁löydä	-11.1729
jör	-11.173
▁lars	-11.1732
▁latina	-11.1732
▁laskuoja	-11.1733
▁miehe	-11.1734
kkeita	-11.1736
▁ympäristössä	-11.1736
▁aktiivisesti	-11.1737
▁kuulkaa	-11.1737
▁veljeni	-11.1738
▁ohessa	-11.1739
▁pyrstö	-11.174
▁epäonnistu	-11.174
ukki	-11.1741
▁osaston	-11.1742
▁luopu	-11.1742
▁saaneen	-11.1743
▁jatkoivat	-11.1744
▁velka	-11.1744
▁melodi	-11.1745
▁katselemaan	-11.1745
▁--"	-11.1748
▁rakastu	-11.1749
nnissa	-11.1752
▁poimi	-11.1753
teella	-11.1755
▁app	-11.1757
▁haudattiin	-11.176
▁edellinen	-11.176
–16	-11.1761
▁rodu	-11.1761
▁mielihyvä	-11.1763
▁magneetti	-11.1763
▁päämaja	-11.1766
ffa	-11.1766
▁luther	-11.1766
▁’	-11.1766
▁maailmanmestari	-11.1768
▁korko	-11.1769
▁maunu	-11.1774
bas	-11.1776
▁rajaa	-11.1776
▁iloisen	-11.1777
karin	-11.1778
▁parve	-11.1783
maat	-11.1784
mäellä	-11.1785
asenno	-11.1787
▁sukka	-11.1787
▁az	-11.1788
▁merkity	-11.1789
▁hawk	-11.1789
▁todistukse	-11.179
▁aj	-11.179
▁1901	-11.1791
▁tulevaisuuden	-11.1791
▁marg	-11.1791
▁kaikella	-11.1791
llisuuteen	-11.1791
menee	-11.1792
▁kävelemään	-11.1793
▁katsellessa	-11.1793
reaktio	-11.1794
▁muuhun	-11.1795
kaisen	-11.1795
▁läheni	-11.1796
▁kukkia	-11.1798
▁kymmeniä	-11.1798
▁via	-11.1798
▁asunut	-11.18
▁britti	-11.1802
▁tiili	-11.1802
tähden	-11.1802
▁välit	-11.1803
▁noja	-11.1806
▁kappaleella	-11.1808
▁leuka	-11.1809
oilta	-11.1809
▁sound	-11.181
▁sielunsa	-11.1813
▁pic	-11.1814
▁käännetty	-11.1814
▁kauniita	-11.1818
▁euron	-11.1819
maisem	-11.1819
▁baari	-11.1819
▁kolmannella	-11.182
▁makedonia	-11.182
▁prefektuuri	-11.182
▁määritelmä	-11.182
▁nännejä	-11.182
▁tavallaan	-11.1822
▁agnes	-11.1824
▁teokset	-11.1825
lava	-11.1825
tekniikkaa	-11.1825
▁japanilainen	-11.1826
▁niitty	-11.1827
kaivo	-11.1829
tavara	-11.1831
▁kerrallaan	-11.1831
▁irrot	-11.1831
stock	-11.1833
utumaan	-11.1835
▁hero	-11.1836
▁tyyppi	-11.1837
▁more	-11.1837
▁tiivis	-11.1839
▁maailmasta	-11.184
▁kokemus	-11.184
teilla	-11.184
▁rengas	-11.1842
kilpailut	-11.1844
teksti	-11.1844
▁pantu	-11.1844
kunnista	-11.1845
▁kumarru	-11.1845
ronin	-11.1846
▁kuningasta	-11.1847
▁ball	-11.1849
töiden	-11.1849
▁myyty	-11.1849
▁vaihdo	-11.185
▁malmi	-11.1851
▁tšekkoslovakia	-11.1851
▁maihinnousu	-11.1851
▁yksinomaan	-11.1851
▁2012–2013	-11.1852
▁silmistä	-11.1852
▁ahdista	-11.1853
▁yks	-11.1853
ttömän	-11.1854
ule	-11.1854
digimon	-11.1856
▁omiin	-11.1857
▁liivi	-11.1859
tutkimukse	-11.1859
▁ves	-11.1859
▁walter	-11.1859
▁fer	-11.186
▁tavat	-11.1861
isevä	-11.1862
mät	-11.1864
▁muutakin	-11.1864
▁kansakoulun	-11.1864
bit	-11.1865
▁väkisin	-11.1865
▁runkkaa	-11.1867
▁paula	-11.1868
▁turvaa	-11.1873
▁näköise	-11.1873
▁tuskan	-11.1876
kuten	-11.1876
muu	-11.1877
▁viktor	-11.1878
▁järje	-11.1879
▁esikuva	-11.188
jumalan	-11.1881
▁järke	-11.1882
▁kuudenne	-11.1882
▁2013–2014	-11.1882
käämme	-11.1883
bat	-11.1883
▁lähtevä	-11.1884
llisiin	-11.1884
▁varuste	-11.1886
▁englantiin	-11.1886
▁syöpä	-11.1886
▁selkeä	-11.1887
▁muodon	-11.1888
historian	-11.1889
▁keskeyty	-11.1889
▁suvi	-11.1889
▁klitorista	-11.1889
neuvoston	-11.1893
▁puolustukse	-11.1893
mmällä	-11.1893
▁töissä	-11.1894
▁viileä	-11.1896
▁hämeenlinna	-11.1897
päs	-11.1899
▁toiminnassa	-11.19
▁komitea	-11.1902
ttäminen	-11.1905
kkalan	-11.1906
▁arv	-11.1906
▁onnistuu	-11.1907
▁läänissä	-11.1907
▁itsessään	-11.1907
▁katsoivat	-11.1908
▁suutelin	-11.1909
▁klaus	-11.1909
tek	-11.1909
▁taloudellise	-11.191
▁havu	-11.1912
▁windows	-11.1913
▁sattunut	-11.1913
▁stone	-11.1913
▁riistä	-11.1914
cca	-11.1914
▁ylsi	-11.1914
▁vallo	-11.1915
ttamassa	-11.1916
▁asetettu	-11.1918
vissä	-11.1918
meeri	-11.1919
▁keskeinen	-11.1919
▁sellaiset	-11.192
▁(15	-11.1922
red	-11.1922
▁hausk	-11.1922
pilve	-11.1924
▁hirsi	-11.1924
▁veturi	-11.1926
▁kylästä	-11.1926
▁unho	-11.1927
▁tat	-11.1928
yydellä	-11.1928
▁post	-11.1931
▁laatua	-11.1933
-18	-11.1935
▁sieni	-11.1936
▁pakara	-11.1938
▁holl	-11.1939
▁merkittävin	-11.1939
▁suihin	-11.194
▁linnassa	-11.1941
albumin	-11.1942
▁lipu	-11.1943
iseltä	-11.1943
▁päässeet	-11.1944
▁slovenia	-11.1944
▁alhaalla	-11.1944
▁havaittu	-11.1944
▁ennemmin	-11.1944
▁komento	-11.1947
▁harmaan	-11.1949
suvun	-11.1951
▁aikonut	-11.1951
rou	-11.1954
▁sääty	-11.1954
▁puhdista	-11.1954
vettä	-11.1956
▁vaativa	-11.1956
▁kemian	-11.1957
raatti	-11.1957
gri	-11.1961
▁vamma	-11.1961
▁sormeni	-11.1963
▁mailma	-11.1965
▁venäjälle	-11.1969
▁holm	-11.197
elleen	-11.1971
▁emma	-11.1972
liikennettä	-11.1972
▁toimittajana	-11.1973
▁äidille	-11.1973
▁muistuttava	-11.1973
▁alasti	-11.1974
▁billboard	-11.1975
▁yhdistä	-11.1975
▁pesäpallo	-11.1976
vaattee	-11.1976
▁ilmaista	-11.1978
▁lyödä	-11.1978
ykset	-11.1978
▁sormensa	-11.198
▁att	-11.1983
▁asuvat	-11.1983
▁odottava	-11.1984
moni	-11.1984
särky	-11.1985
▁tekijän	-11.1986
than	-11.1986
▁avara	-11.1988
reilla	-11.1989
▁koiraa	-11.1989
▁kättään	-11.1991
▁voisivat	-11.1991
▁vierailu	-11.1994
▁tyve	-11.1995
stella	-11.1999
ttavana	-11.2
kemia	-11.2002
teeksi	-11.2003
▁evä	-11.2004
▁nyökkäsi	-11.2006
▁liikkua	-11.2006
▁dokumentti	-11.2006
▁teiltä	-11.2006
▁aero	-11.2006
▁helvetti	-11.2006
▁2008–2009	-11.2006
▁toimitus	-11.201
liittymä	-11.2012
▁ajatusta	-11.2013
▁lante	-11.2014
▁unohtanut	-11.2014
▁belgia	-11.2014
sil	-11.2015
turnaus	-11.2016
vuote	-11.2018
▁16-	-11.2018
▁vaikeaa	-11.2019
▁bad	-11.2019
▁päähänsä	-11.2019
telemään	-11.202
▁sanovat	-11.2021
▁eugen	-11.2021
▁varpa	-11.2025
▁petro	-11.2025
uda	-11.2026
ttavissa	-11.2027
pensa	-11.203
vá	-11.2031
▁kadulla	-11.2032
▁kuvata	-11.2033
▁tunnetun	-11.2039
▁sävellys	-11.2039
▁epäillä	-11.2039
▁pohjolan	-11.204
villä	-11.204
▁unen	-11.204
▁suunnilleen	-11.2041
suuden	-11.2041
aalinen	-11.2041
lupa	-11.2043
pankki	-11.2043
▁hong	-11.2044
▁sijainnee	-11.2045
▁talouden	-11.2045
▁ihaili	-11.2046
▁vuorostaan	-11.2048
kalo	-11.2048
lig	-11.205
▁puolilla	-11.2055
levi	-11.2056
lannin	-11.2059
▁umpi	-11.206
▁tietänyt	-11.206
▁alemmas	-11.2061
▁koostui	-11.2062
joukkueen	-11.2062
▁opettajan	-11.2063
teoksi	-11.2065
▁vika	-11.2068
▁olki	-11.2068
▁samanaikaisesti	-11.2068
▁sinulta	-11.2068
▁ensimmäisiä	-11.2069
ääri	-11.207
yhteydet	-11.207
wal	-11.2072
his	-11.2072
▁ulottui	-11.2073
▁kapinoi	-11.2074
▁lun	-11.2076
▁tarkoittava	-11.2076
▁painos	-11.2078
▁valti	-11.2078
▁hajosi	-11.2082
▁arvioitu	-11.2085
▁ash	-11.2085
▁järjestyksessä	-11.2085
▁alkaessa	-11.2087
▁kasvavat	-11.2088
▁lähesty	-11.2089
▁johtami	-11.2093
▁paidan	-11.2093
▁amiraali	-11.2095
▁2015–2016	-11.21
▁katselivat	-11.21
▁kilpi	-11.2101
teelle	-11.2101
▁pyritään	-11.2101
jistä	-11.2104
▁kuro	-11.2104
▁valvonta	-11.2104
kansleri	-11.2106
▁yöksi	-11.2106
▁espanjalainen	-11.2106
▁makea	-11.2107
▁viher	-11.2107
▁puolalais	-11.2108
ntia	-11.2108
▁kiiruhti	-11.2111
mmille	-11.2114
▁taistella	-11.2114
▁vapaana	-11.2119
▁kätesi	-11.212
pela	-11.2121
▁kuljetti	-11.2121
▁xx	-11.2122
▁eurooppaan	-11.2122
▁ami	-11.2123
mul	-11.2123
järvelle	-11.2125
▁alkava	-11.2127
▁ryhdy	-11.2128
▁nojasi	-11.2131
hevos	-11.2131
pöllö	-11.2132
▁fleming	-11.2132
▁toukokuun	-11.2133
burgin	-11.2134
▁53	-11.2135
▁1995.	-11.2136
uja	-11.2137
jär	-11.2138
▁väriltään	-11.2139
▁keskustelun	-11.2139
▁ohue	-11.214
▁mana	-11.214
▁nimityksen	-11.2144
wald	-11.2145
▁järjestys	-11.2146
▁kultainen	-11.2148
▁tietäisi	-11.2149
kasti	-11.2149
▁jättäen	-11.2151
▁valkoista	-11.2152
ttömiä	-11.2153
▁jalkojen	-11.2153
▁kreikkalaise	-11.2155
▁parhaasta	-11.2163
▁pistepörssin	-11.2163
▁tiehensä	-11.2163
▁opettaji	-11.2164
valko	-11.2164
laisiin	-11.2165
▁hay	-11.2167
▁tuhannen	-11.2167
suunnitelma	-11.2169
gro	-11.217
▁myst	-11.2171
▁vieno	-11.2171
▁lähettänyt	-11.2171
vihreä	-11.2172
▁isää	-11.2172
▁vainio	-11.2174
▁saaret	-11.2174
▁armollinen	-11.2175
▁virkaan	-11.2176
vuotisen	-11.2177
▁tulkaa	-11.218
▁fysi	-11.218
▁levin	-11.2181
right	-11.2181
▁wai	-11.2182
▁lohdutta	-11.2183
▁valmiit	-11.2184
▁vähemmistö	-11.2185
komitean	-11.2186
▁rajalla	-11.2188
oitettu	-11.2192
▁töihin	-11.2193
▁paka	-11.2194
saaressa	-11.2195
▁jännitty	-11.2195
▁itämeren	-11.2198
▁dol	-11.22
säiliö	-11.22
▁jääpallo	-11.22
▁lukkari	-11.2201
oittaa	-11.2201
▁energian	-11.2201
piha	-11.2201
parka	-11.2202
sistä	-11.2202
▁sattumalta	-11.2203
▁vanhempien	-11.2205
▁suuni	-11.2206
kalvo	-11.2208
meli	-11.2209
▁tärkei	-11.221
ryhmi	-11.2213
siipi	-11.2214
▁paikkoja	-11.2214
▁kanavan	-11.2214
▁kävin	-11.2215
lehdet	-11.2215
▁seurannut	-11.2215
▁huvila	-11.2216
▁lähemmäs	-11.2216
mallin	-11.2217
▁teatterissa	-11.2219
▁pite	-11.2222
▁vastaavasti	-11.2223
▁tällaisia	-11.2227
▁asianajaja	-11.2227
▁perseeseen	-11.2229
tilat	-11.2229
▁sovellu	-11.2231
▁kieleni	-11.2231
▁johtivat	-11.2231
▁kooltaan	-11.2234
▁salin	-11.2234
▁käsikirjoittaja	-11.2237
nopeus	-11.2238
▁näkisi	-11.224
▁museon	-11.224
rå	-11.2241
▁lag	-11.2241
tilassa	-11.2246
▁pääty	-11.2247
▁työläis	-11.2247
▁och	-11.225
▁julm	-11.225
llensa	-11.225
▁kot	-11.2251
▁francis	-11.2252
uut	-11.2254
▁1999.	-11.2254
pataljoona	-11.2255
▁pelkkää	-11.2256
▁sänky	-11.2256
▁asemansa	-11.2257
▁niemimaa	-11.2257
pitäjä	-11.2258
▁mahdollinen	-11.2259
▁rakennutti	-11.2259
▁puhkesi	-11.2259
▁uskollinen	-11.2259
▁kalastaja	-11.226
▁vaka	-11.226
▁väliaikais	-11.2261
▁johtaj	-11.2263
▁aate	-11.2263
tteet	-11.2263
▁musikaali	-11.2263
tauko	-11.2263
▁innokkaasti	-11.2264
vaimo	-11.2265
▁ottaisi	-11.2266
▁laskenut	-11.2266
▁tärkeää	-11.2267
taiteilija	-11.2267
til	-11.2268
nyk	-11.2269
▁esiintyvät	-11.227
▁listan	-11.2271
▁kundi	-11.2272
▁sisäänsä	-11.2275
▁lada	-11.2275
psy	-11.2276
▁sellaisena	-11.2281
umi	-11.2281
▁alalaji	-11.2282
▁tähdet	-11.2282
huuto	-11.2284
▁fab	-11.2285
▁virolais	-11.2287
▁stre	-11.229
▁komppaniaan	-11.229
▁uskalsi	-11.2291
▁hamilton	-11.2291
bis	-11.2291
akseli	-11.2292
▁asioihin	-11.2292
▁napoleon	-11.2293
▁käyttämi	-11.2294
▁alapuolella	-11.2295
grafi	-11.2298
ttäviä	-11.2298
▁silmäykse	-11.2298
▁tuotannon	-11.2299
▁kaudesta	-11.23
myrsky	-11.2301
▁korosta	-11.2302
▁pik	-11.2302
ardi	-11.2302
▁suloinen	-11.2305
▁toiminnasta	-11.2306
▁antavat	-11.2306
hallitus	-11.2306
▁ilve	-11.2306
▁sanoista	-11.2307
kirkon	-11.2307
▁merimies	-11.2307
▁kutsuu	-11.2308
mmistä	-11.2309
maisesti	-11.2311
▁ammati	-11.2315
▁aikaansaa	-11.2316
▁puki	-11.2317
▁(5	-11.2317
jahti	-11.232
systeemi	-11.2323
▁ensimmäisestä	-11.2323
▁kauneude	-11.2323
▁paikoilleen	-11.2323
▁kuolon	-11.2323
▁aihetta	-11.2326
bad	-11.2327
▁taivasta	-11.2328
▁vaihdettiin	-11.2328
▁rangaistu	-11.233
▁sotilaat	-11.2333
▁kylpy	-11.2333
oneja	-11.2334
▁_(	-11.2334
▁tarvittava	-11.2336
▁käytä	-11.2336
▁suosion	-11.2336
▁kiittä	-11.2337
yksissä	-11.2337
▁päästy	-11.2338
▁rupesivat	-11.2338
▁ray	-11.2338
▁paikat	-11.234
▁rev	-11.2341
▁alp	-11.2343
nyky	-11.2344
▁muutettu	-11.2344
▁eurooppalais	-11.2345
▁juoksussa	-11.2345
uoma	-11.2345
▁east	-11.2345
voiman	-11.2346
▁juoda	-11.2346
▁kosketti	-11.2347
▁epäselvä	-11.2348
alasta	-11.2349
▁jakob	-11.2351
qu	-11.2351
▁halo	-11.2353
▁kerron	-11.2353
▁kasvoihin	-11.2353
▁oikeaan	-11.2354
▁luottamukse	-11.2355
dam	-11.2355
denin	-11.2356
isteja	-11.2356
▁lepäsi	-11.2356
yan	-11.2357
▁rohkeutta	-11.2358
▁ruma	-11.2358
▁avautui	-11.2358
▁sileä	-11.2358
▁käsillä	-11.2359
▁päätäni	-11.2359
▁veljekset	-11.2359
tehtävä	-11.236
▁todettiin	-11.2362
▁andré	-11.2362
▁pyytänyt	-11.2362
▁naurahti	-11.2363
uudeksi	-11.2364
▁ajasta	-11.2365
isimme	-11.2366
reissa	-11.2367
▁kaupunginosassa	-11.237
▁jaksanut	-11.2371
▁kauppiaa	-11.2371
▁parhaana	-11.2371
kymmen	-11.2372
vre	-11.2372
parta	-11.2373
▁aamun	-11.2373
▁laisk	-11.2373
▁ettet	-11.2375
▁auli	-11.2376
polve	-11.2377
hoido	-11.2378
östä	-11.2378
▁tuntuva	-11.2379
▁mitäpä	-11.2379
▁taitaa	-11.2381
salme	-11.2382
▁akatemian	-11.2383
▁käyvät	-11.2383
▁menevät	-11.2387
▁team	-11.2387
▁ovella	-11.2388
▁2007–2008	-11.2388
rooleja	-11.2388
▁laukaisu	-11.2388
▁läsnäolo	-11.2389
▁kokoelmi	-11.2389
▁kehityksen	-11.2389
▁tuotantokausi	-11.239
▁televisiossa	-11.2391
moista	-11.2393
▁vastakkais	-11.2395
lahja	-11.2395
tapahtumi	-11.2396
▁aineisto	-11.2396
▁kiekko	-11.2397
kaupassa	-11.2398
▁luetaan	-11.2399
▁kauaa	-11.2401
▁tyhmä	-11.2403
▁street	-11.2403
yhteys	-11.2405
kasvien	-11.2406
▁hang	-11.2406
▁filmi	-11.2406
▁venäläisen	-11.2408
▁uteliai	-11.2409
▁kuulee	-11.2416
▁dr	-11.2417
essäni	-11.2417
▁komenta	-11.2419
▁läheltä	-11.2419
▁peräyty	-11.2419
▁jeesus	-11.242
▁dave	-11.242
▁atlantin	-11.2421
kentän	-11.2422
▁andrew	-11.2423
▁hämä	-11.2423
▁astuu	-11.2425
▁pankin	-11.2426
ttekö	-11.2426
med	-11.2428
▁mui	-11.2429
lojen	-11.243
▁house	-11.243
▁jokapäiväis	-11.2431
ongelmi	-11.2431
▁pelannee	-11.2432
▁mahdollis	-11.2433
▁arviolta	-11.2433
▁pale	-11.2434
llisesta	-11.2435
ello	-11.2436
kielistä	-11.2436
▁marcus	-11.2437
▁irakin	-11.2438
▁hallinnon	-11.2439
▁pyri	-11.2439
kieltä	-11.2439
▁ääre	-11.244
▁murta	-11.244
▁kannattaji	-11.2441
laiselle	-11.2446
▁49	-11.2446
▁barcelona	-11.2448
llisista	-11.2449
▁brasilia	-11.2449
▁kertomaan	-11.2449
▁irlannin	-11.2453
mbi	-11.2453
▁med	-11.2453
räjä	-11.2454
▁tulkin	-11.2455
▁tyttöystävä	-11.2455
▁nina	-11.2455
▁pienestä	-11.2458
▁kuvaava	-11.2459
▁jokaista	-11.2459
▁chan	-11.2461
▁mutki	-11.2462
▁viestintä	-11.2462
_1	-11.2463
str	-11.2464
▁syvän	-11.2465
▁ympäröivä	-11.2465
room	-11.2465
▁qua	-11.2465
▁kyrpänsä	-11.2466
pitkä	-11.2466
▁rot	-11.2467
▁pyyntö	-11.2467
▁luc	-11.2467
▁ulkoa	-11.2467
▁mestaruussarja	-11.2469
iteetti	-11.247
▁joensuun	-11.247
ografia	-11.2472
lauluntekijä	-11.2474
▁perinteisen	-11.2475
▁huipu	-11.2475
▁recordsin	-11.2476
työt	-11.2476
▁joukkueensa	-11.2476
▁kansallinen	-11.2477
▁suostunut	-11.2477
▁herkkä	-11.2477
▁kutsutu	-11.2478
▁keskiarvo	-11.2479
▁virossa	-11.248
▁56	-11.248
nerin	-11.2482
▁tutkijat	-11.2482
▁korjaa	-11.2482
▁vessa	-11.2484
▁vasemmalle	-11.2485
ars	-11.2485
▁ilosta	-11.2486
ältä	-11.2488
▁helli	-11.2491
kortti	-11.2492
▁nyrkki	-11.2493
▁vääri	-11.2496
britannian	-11.2496
▁presidentinvaal	-11.2497
▁lapua	-11.2497
kuntiin	-11.25
▁sanomatta	-11.2501
▁ainetta	-11.2501
▁jer	-11.2505
▁mieheen	-11.2506
▁pelaajat	-11.2511
seuraa	-11.2512
▁housujen	-11.2513
sellä	-11.2513
kehi	-11.2514
ilmiö	-11.2517
vits	-11.2517
▁evankelis	-11.2518
▁viikolla	-11.2519
▁ranskaan	-11.2519
ismia	-11.2519
="	-11.252
▁puhalta	-11.252
▁ilmaise	-11.2522
▁57	-11.2522
aineena	-11.2523
ikassa	-11.2523
▁poi	-11.2525
▁kappaleiden	-11.2527
stre	-11.2531
uusi	-11.2532
▁haluat	-11.2532
▁victor	-11.2532
▁enhän	-11.2533
▁leikkaa	-11.2534
kasvei	-11.2534
▁hämeenlinnan	-11.2535
cro	-11.2535
▁virkamies	-11.2539
cra	-11.2539
▁mauno	-11.2541
▁järki	-11.2541
hara	-11.2543
▁uusinta	-11.2544
▁koostuva	-11.2544
kam	-11.2544
aalto	-11.2548
cm	-11.2548
▁omituinen	-11.2551
▁taylor	-11.2551
▁jacques	-11.2551
▁yhdeksäs	-11.2551
▁tunnustukse	-11.2551
▁disney	-11.2552
▁puristeli	-11.2552
▁110	-11.2553
▁tunnustus	-11.2555
uuteni	-11.2556
▁hartaasti	-11.2556
verkon	-11.2559
▁good	-11.2559
▁teknologia	-11.256
tonna	-11.2561
tuen	-11.2562
ttomina	-11.2563
▁kysymyksen	-11.2563
▁liikkuva	-11.2563
insinööri	-11.2565
▁tullen	-11.2565
▁pakana	-11.2566
▁arkki	-11.2566
▁josef	-11.2568
patsa	-11.2568
▁siirtomaa	-11.257
karhu	-11.2572
liina	-11.2572
▁cupissa	-11.2574
sula	-11.2574
▁rikkaa	-11.2574
▁vievä	-11.2575
▁nukkua	-11.2578
▁stor	-11.2579
yksestä	-11.258
▁löy	-11.258
▁riittävän	-11.258
lys	-11.2583
▁perustuslaki	-11.2584
▁vanhojen	-11.2584
▁peräkkäin	-11.2584
▁teknillise	-11.2584
▁kreikassa	-11.2584
▁saatua	-11.2585
▁ajoittain	-11.2587
sävel	-11.2587
▁huima	-11.259
▁roma	-11.2592
▁voidakseen	-11.2594
▁().	-11.2596
▁askelin	-11.2596
▁kesäkuun	-11.2598
järjestykse	-11.2598
▁ylp	-11.2599
▁rangaistuksen	-11.26
tuottaja	-11.26
▁viestissä	-11.26
▁tir	-11.2602
▁molekyyli	-11.2603
▁julius	-11.2603
virran	-11.2603
▁hina	-11.2604
▁kans	-11.2604
▁kynä	-11.2605
old	-11.2608
▁aavista	-11.2608
▁kyseisen	-11.2608
▁kuopio	-11.2611
felt	-11.2612
▁ym	-11.2612
hus	-11.2612
▁tae	-11.2613
synt	-11.2614
▁kunniaa	-11.2615
▁sydämessä	-11.2616
▁kokonaisen	-11.2616
▁diplomaatti	-11.2617
▁kruuna	-11.2617
▁ankkuri	-11.2617
▁näytelmi	-11.2617
▁vaikuttavat	-11.2617
cas	-11.2617
▁tajusin	-11.2617
▁peruna	-11.2618
▁päästäkseen	-11.2619
▁parantu	-11.262
▁maantietoa	-11.2621
▁koettanut	-11.2622
▁mainitsi	-11.2623
▁maaottelu	-11.2624
▁toni	-11.2627
▁ihmiskunnan	-11.2627
▁tunkeutui	-11.2627
mita	-11.2629
aikoina	-11.2631
▁huh	-11.2632
▁todellise	-11.2632
▁leik	-11.2633
▁qu	-11.2634
▁semmoisia	-11.2634
▁belgian	-11.2635
▁monessa	-11.2636
▁kunto	-11.2639
▁koulutuksen	-11.2639
▁khl	-11.264
taessa	-11.2642
▁tehtävässä	-11.2643
▁kuore	-11.2644
▁vik	-11.2644
nyttä	-11.2645
▁tyynesti	-11.2645
▁kosta	-11.2646
▁kirjain	-11.2647
▁lopullise	-11.2648
▁vuosikymmenen	-11.2648
▁vertaa	-11.2649
▁hiv	-11.2649
▁tehtävänsä	-11.265
▁konstantin	-11.265
▁vaihteessa	-11.265
▁kristiina	-11.2651
▁esiintyä	-11.2653
lajeista	-11.2653
▁viemään	-11.2655
▁laatu	-11.2655
▁(10	-11.2655
▁poiketen	-11.2655
▁rakkaudesta	-11.2657
▁esitetään	-11.2657
▁tihe	-11.2658
▁sekoitta	-11.2658
puh	-11.2659
▁iron	-11.2662
▁lempe	-11.2662
kumppani	-11.2663
▁bir	-11.2664
▁160	-11.2665
▁komppanian	-11.2665
lim	-11.2666
iksen	-11.2666
ilijoita	-11.2666
▁paljastui	-11.2667
▁luokit	-11.2667
poliisi	-11.2667
▁muutamien	-11.2668
▁rukoil	-11.2669
▁ellen	-11.2669
▁kiss	-11.2669
▁meksikon	-11.267
▁magnus	-11.267
▁uhat	-11.2673
▁loppuottelu	-11.2675
▁vastaavan	-11.2676
lem	-11.2677
▁dun	-11.2677
▁luonut	-11.2678
▁tutkimaan	-11.268
▁suulla	-11.2681
[3	-11.2681
▁palloseura	-11.2682
▁playstation	-11.2683
▁lehdistö	-11.2683
▁molempia	-11.2683
▁ikävöi	-11.2684
▁tehdyn	-11.2684
▁puoleensa	-11.2685
▁buck	-11.2687
▁sulkeutu	-11.2688
▁play	-11.2689
ttämällä	-11.2691
pho	-11.2692
sena	-11.2693
porta	-11.2695
▁maaherra	-11.2695
▁virkka	-11.2702
▁kristinusko	-11.2703
▁kesänä	-11.2704
▁lahko	-11.2705
▁sijoittunut	-11.2709
▁kannattaa	-11.2712
▁keveä	-11.2715
▁ruvennut	-11.2717
▁jännitys	-11.2717
▁mahdollisuuden	-11.2719
▁novelli	-11.2719
▁taidemuseo	-11.2719
▁aamiais	-11.2719
▁ajattelen	-11.2719
▁kep	-11.2719
cz	-11.272
▁vapise	-11.2721
▁äkki	-11.2726
▁lim	-11.2729
▁eukko	-11.273
▁kokkola	-11.2733
▁av	-11.2733
hil	-11.2736
▁beau	-11.2736
varr	-11.2736
▁ferr	-11.2737
▁river	-11.2737
–7	-11.2739
maiset	-11.2739
▁päästää	-11.274
rajan	-11.2741
vira	-11.2742
piireissä	-11.2744
ohjelmassa	-11.2746
▁miller	-11.2746
▁bart	-11.2746
▁historioitsija	-11.2747
▁pataljoona	-11.2748
▁sortu	-11.2748
▁fysiikan	-11.2749
▁indonesia	-11.275
▁detroit	-11.275
▁kuullessaan	-11.275
▁keskustaajama	-11.2751
▁cli	-11.2751
▁noutamaan	-11.2751
▁tartu	-11.2751
sulke	-11.2752
▁poltti	-11.2753
▁tše	-11.2753
▁keskustasta	-11.2754
▁folk	-11.2754
▁ulkomaan	-11.2756
▁olympialaisten	-11.2756
▁rinnassa	-11.2756
▁beck	-11.2757
▁antautui	-11.2758
plo	-11.2758
▁haamu	-11.276
▁viran	-11.276
▁kellon	-11.2761
▁menestynyt	-11.2762
▁vierasta	-11.2762
▁hyy	-11.2763
▁käskee	-11.2764
mala	-11.2764
vamma	-11.2764
zon	-11.2765
▁siirtyä	-11.2766
▁saara	-11.2767
esimerkiksi	-11.2767
▁back	-11.2767
▁pitkäksi	-11.2767
stoa	-11.2768
lve	-11.2772
–20	-11.2773
ttelen	-11.2774
kkeihin	-11.2775
▁mutka	-11.2775
▁kita	-11.2775
▁kalkki	-11.2775
empaa	-11.2776
▁ratta	-11.2777
utuvat	-11.2777
liga	-11.2778
▁tallin	-11.2779
▁1997.	-11.2779
fen	-11.2781
▁kyynär	-11.2782
kulla	-11.2782
▁yhdisti	-11.2784
▁savon	-11.2785
▁turmio	-11.2786
ohjelmia	-11.2787
▁liittyä	-11.2788
▁kron	-11.2788
yer	-11.279
oksissa	-11.2791
▁berliinissä	-11.2791
▁tuotteita	-11.2792
ovski	-11.2792
▁halva	-11.2795
harmaa	-11.2797
muuri	-11.2797
leiri	-11.2798
▁tilannetta	-11.2798
▁jatkoin	-11.2799
▁kytke	-11.2799
▁sarvi	-11.28
dynastian	-11.2804
tilo	-11.2812
tumisen	-11.2813
läisiä	-11.2814
▁vihollisia	-11.2814
▁katsottu	-11.2815
pano	-11.2816
▁sotajoukko	-11.2817
▁kiva	-11.2818
▁alice	-11.2818
▁lävitse	-11.2818
kloridi	-11.2818
työhön	-11.2818
▁maaliskuun	-11.282
lähde	-11.2821
▁poh	-11.2822
esiintymi	-11.2824
keitä	-11.2825
▁piirre	-11.2826
▁välittänyt	-11.2826
▁julki	-11.2826
kilpailujen	-11.2827
▁eino	-11.2829
▁jätetty	-11.2829
▁camp	-11.2829
▁lakka	-11.2829
▁lemmi	-11.2831
▁haavo	-11.2832
▁heimon	-11.2832
▁kielten	-11.2834
▁tuima	-11.2835
▁alba	-11.2836
lf	-11.2838
▁sisämaa	-11.2839
▁puo	-11.2841
▁tunkeu	-11.2842
lor	-11.2842
▁kuvataan	-11.2843
▁ylioppila	-11.2843
▁apuna	-11.2844
▁kiinty	-11.2844
▁sopivan	-11.2844
▁fair	-11.2845
▁neljännes	-11.2845
▁vähällä	-11.2846
cross	-11.2849
metalli	-11.285
genin	-11.285
lek	-11.2851
▁tohtorin	-11.2851
▁nykyistä	-11.2851
▁kuunnella	-11.2852
▁lihaa	-11.2853
pako	-11.2853
▁peittä	-11.2854
tša	-11.2856
▁keskustassa	-11.2856
▁valoisa	-11.2858
liu	-11.2858
▁kaikkeen	-11.286
▁sher	-11.286
▁alppi	-11.2861
▁olutta	-11.2861
▁lama	-11.2861
ios	-11.2863
kysymyksi	-11.2863
fre	-11.2865
▁työkalu	-11.2865
este	-11.2866
otin	-11.2866
puhu	-11.2868
ttelivat	-11.2869
laita	-11.287
misella	-11.2872
▁kouluun	-11.2872
▁persettä	-11.2872
osio	-11.2873
▁kilo	-11.2874
▁rahoitta	-11.2875
▁mielellä	-11.2876
▁ranskalaisen	-11.2877
▁yhteisen	-11.2878
▁käsistä	-11.2878
▁dam	-11.2878
bach	-11.2878
▁loukkaantu	-11.2884
lari	-11.2885
▁teet	-11.2885
▁kestänee	-11.2886
▁emännän	-11.2886
skikenttäpelaaja	-11.2887
vuorten	-11.2887
▁voita	-11.2887
▁kaudelle	-11.2888
▁hallinnollinen	-11.2888
▁säveltänyt	-11.289
▁matali	-11.2891
▁keisarikunnan	-11.2892
▁kertova	-11.2894
▁aki	-11.2895
▁pisteitä	-11.2895
manni	-11.2899
▁herkku	-11.2901
▁erikoistunut	-11.2902
▁kasvoilla	-11.2903
ammu	-11.2903
▁kehittä	-11.2905
ukon	-11.2906
käsittely	-11.2906
▁oikealta	-11.2907
alalla	-11.2908
▁id	-11.2908
▁syntyneet	-11.291
▁pilka	-11.291
oksessa	-11.2911
šev	-11.2912
▁ainoana	-11.2915
oton	-11.2917
▁maalivahti	-11.2918
▁reaali	-11.2921
▁välityksellä	-11.2921
▁vaunut	-11.2922
▁%.	-11.2924
tekniikan	-11.2926
▁senaattori	-11.2931
▁maisteriksi	-11.2935
puvun	-11.2938
▁juosta	-11.294
kaudet	-11.2941
hauta	-11.2943
▁pohjoisosassa	-11.2943
visio	-11.2944
▁hankala	-11.2944
inger	-11.2946
▁väsynyt	-11.2947
kolan	-11.295
▁asioissa	-11.2951
kohteita	-11.2951
htivat	-11.2951
▁teoksessa	-11.2952
▁medi	-11.2953
▁jäljelle	-11.2954
▁vallitseva	-11.2954
▁sanoilla	-11.2955
▁kyseise	-11.2955
▁useamman	-11.2956
▁otteeseen	-11.2956
▁agent	-11.2957
▁viimeisessä	-11.2957
ituksen	-11.2958
▁sointu	-11.2958
▁tomu	-11.2958
▁aiempi	-11.2959
▁sotamies	-11.296
▁arva	-11.296
keskuksi	-11.2961
▁järkevä	-11.2962
blo	-11.2963
▁tuntuivat	-11.2963
▁orji	-11.2965
kautena	-11.2965
▁58	-11.2966
▁kauka	-11.2967
▁saalista	-11.2968
▁wolf	-11.2974
▁siin	-11.2975
▁käännyin	-11.2977
järvestä	-11.298
▁reitin	-11.2981
▁arvokkaa	-11.2982
▁kukku	-11.2983
uskon	-11.2985
säännö	-11.2986
▁philadelphia	-11.2989
▁luopua	-11.2989
▁keskittynyt	-11.2989
▁texas	-11.2989
▁temppelin	-11.2989
teollisuutta	-11.299
▁kysymyksiä	-11.299
mattomana	-11.299
▁kumpikaan	-11.2991
▁suulle	-11.2992
aineita	-11.2994
▁vastaavat	-11.2995
▁liittyvi	-11.2996
▁yliopistoon	-11.2997
▁seinään	-11.2998
▁johtajan	-11.2999
chu	-11.3001
▁vakuutus	-11.3002
▁saatoin	-11.3003
▁siirtynyt	-11.3003
äkkä	-11.3006
▁ovet	-11.3006
▁mök	-11.3008
ddy	-11.3008
▁isot	-11.3009
▁roolin	-11.301
▁vaikuttivat	-11.3012
kerran	-11.3012
▁hm	-11.3012
▁peite	-11.3013
▁pasi	-11.3016
▁sairaus	-11.3016
▁kuljetus	-11.3016
▁kasvatukse	-11.3016
tetyksi	-11.3016
▁pääoma	-11.3019
rotu	-11.302
▁tiedetä	-11.3021
radan	-11.3022
▁est	-11.3022
▁suunnattoma	-11.3023
▁kahdeksanneksi	-11.3023
▁suunnattu	-11.3024
▁kehittynee	-11.3024
▁paju	-11.3024
▁johtuva	-11.3024
▁työt	-11.3025
▁lakkaamatta	-11.3025
▁strategi	-11.3026
▁1891	-11.3026
▁vaaraa	-11.3027
▁tiet	-11.303
ersin	-11.3031
▁niskaan	-11.3033
potku	-11.3033
italia	-11.3034
▁nautinto	-11.3034
asso	-11.3034
piiriin	-11.3035
▁tarkk	-11.3038
nuor	-11.3038
hetki	-11.3039
▁murtu	-11.3039
▁olue	-11.3041
▁valkoisten	-11.3041
▁hetkessä	-11.3041
▁keltainen	-11.3043
▁nousemaan	-11.3043
byn	-11.3043
päinen	-11.3045
▁hita	-11.3045
▁hag	-11.3045
▁käytännön	-11.3046
▁listalla	-11.3046
▁vaikuttava	-11.3048
▁rich	-11.305
▁vankilassa	-11.305
▁poistaa	-11.3053
pelaaji	-11.3053
▁kes	-11.3053
▁irto	-11.3054
▁54	-11.3054
▁näp	-11.3054
tyneet	-11.3055
▁satunnais	-11.3057
▁sinuun	-11.3058
▁talvisodan	-11.3058
▁ilmakehä	-11.3059
▁nils	-11.306
▁useammin	-11.3061
▁1893	-11.3061
▁haittaa	-11.3062
▁väitteli	-11.3063
neisiin	-11.3063
▁ryöstö	-11.3063
▁hylkäsi	-11.3065
▁epäili	-11.3068
rakas	-11.3068
mpo	-11.307
▁valitaan	-11.3072
rez	-11.3073
▁kypsy	-11.3073
▁ša	-11.3078
▁funktio	-11.3078
▁selviytyi	-11.3079
▁sydämestä	-11.3082
turnauksessa	-11.3082
▁painosta	-11.3084
▁kalifornian	-11.3085
▁pihalla	-11.3086
▁intiassa	-11.3087
▁uskonno	-11.3088
▁puhuivat	-11.3088
▁lämmittä	-11.3088
tettynä	-11.3089
▁viattoma	-11.3091
▁palkkio	-11.3092
▁tehtävän	-11.3092
▁margaret	-11.3092
▁paistoi	-11.3093
▁arvasi	-11.3093
ume	-11.3093
▁ilmatorjunta	-11.3093
▁perkele	-11.3094
▁ohjelmassa	-11.3095
osuus	-11.3095
▁asteli	-11.3095
▁rulla	-11.3095
▁nuoruuden	-11.3095
▁kaatoi	-11.3097
▁sekaisin	-11.3099
▁suuntaa	-11.3099
▁tuskaa	-11.31
▁kuninkaallise	-11.31
kangas	-11.31
herr	-11.31
▁milano	-11.3101
▁islam	-11.3101
▁laitoksen	-11.3101
▁liikkeellä	-11.3103
▁avi	-11.3103
▁valtaosa	-11.3104
▁reisiä	-11.3106
▁päivällise	-11.3107
▁ahven	-11.3109
▁mittaisen	-11.3112
stuneena	-11.3112
pula	-11.3114
afrikassa	-11.3114
▁olut	-11.3116
▁heino	-11.3118
▁puuta	-11.3118
tilaan	-11.3119
▁karta	-11.3119
▁kuntoon	-11.312
▁kuul	-11.312
100	-11.3121
▁myydä	-11.3122
▁metsää	-11.3125
laatikko	-11.3125
ulf	-11.3125
▁umm	-11.3127
▁salama	-11.3127
▁stephen	-11.3127
▁seudulla	-11.3128
▁tammikuun	-11.3128
pre	-11.3128
▁levytti	-11.3128
▁venäjää	-11.3128
neestä	-11.3132
▁tyytyväisenä	-11.3133
▁vaikeroi	-11.3134
▁totisesti	-11.3137
▁hra	-11.3137
vartio	-11.3138
▁lentävä	-11.3139
haar	-11.314
▁lakkasi	-11.3141
ttömyyde	-11.3141
▁1992.	-11.3144
▁lää	-11.3144
▁chu	-11.3146
▁kaupungit	-11.3147
▁uno	-11.3148
▁johtajaksi	-11.3148
▁kyseli	-11.3148
▁enkö	-11.3151
▁draama	-11.3154
tytär	-11.3154
uuksien	-11.3157
▁enimmä	-11.3158
▁moneen	-11.316
▁esp	-11.3161
▁kolmantena	-11.3162
▁yhteyteen	-11.3162
▁opinnot	-11.3163
▁paja	-11.3165
▁uudelle	-11.3165
▁kyynele	-11.3166
▁sormella	-11.3167
rium	-11.3167
sankari	-11.3167
▁venäläisiä	-11.3168
hild	-11.3169
laus	-11.317
tumista	-11.317
▁herättänyt	-11.3171
▁surmaa	-11.3172
joo	-11.3173
▁hyökkäsivät	-11.3173
tieteellinen	-11.3173
▁130	-11.3176
▁iltapäivä	-11.3178
▁piet	-11.3178
rj	-11.3179
▁valmistaja	-11.318
▁muistomerkki	-11.318
▁ohjelmaa	-11.318
▁rakastaja	-11.318
▁fau	-11.3181
koulutus	-11.3185
▁suunnitelman	-11.3188
▁ystävyys	-11.3188
▁asiakas	-11.3189
▁rää	-11.3189
▁puhuttu	-11.319
▁paljastaa	-11.319
▁vaipu	-11.3191
sanoi	-11.3192
▁eroon	-11.3194
kkuus	-11.3196
▁hävinnyt	-11.3197
▁bbc	-11.3198
▁pelasti	-11.3198
▁kansojen	-11.3198
▁kehno	-11.3198
roksen	-11.3198
▁vanhemman	-11.3199
▁tunisia	-11.3199
▁viereeni	-11.32
▁menehtyi	-11.3202
▁luonteen	-11.3202
▁retk	-11.3203
▁erilaisten	-11.3205
▁laajan	-11.3206
▁gustav	-11.3206
▁ruumiinsa	-11.3207
▁viimeiseen	-11.3208
▁kumpu	-11.321
pea	-11.321
▁aik	-11.3211
▁kapinan	-11.3211
▁2,5	-11.3211
▁marski	-11.3212
▁synnyttä	-11.3213
▁seuraan	-11.3213
▁poiki	-11.3213
kuja	-11.3214
▁saavuttua	-11.3214
▁keskimääräi	-11.3215
▁silmissään	-11.3216
▁minkään	-11.3217
▁suurimpia	-11.3218
▁kaupungi	-11.3218
liisa	-11.3219
▁emilia	-11.3219
▁66	-11.322
kammio	-11.322
valmistaja	-11.3221
▁tykö	-11.3222
▁shar	-11.3223
▁viel	-11.3223
tyään	-11.3224
arvio	-11.3224
▁liettuan	-11.3225
▁levyllä	-11.3225
▁kirkkaan	-11.3226
▁walesi	-11.3227
▁hyvässä	-11.3228
▁kehui	-11.3229
▁ihmettele	-11.323
▁kriisi	-11.3231
ltani	-11.3231
▁vety	-11.3231
phi	-11.3231
utumis	-11.3232
▁katedraali	-11.3232
▁eräät	-11.3233
▁evakuoi	-11.3233
▁lääketieteen	-11.3233
▁vitu	-11.3235
▁gua	-11.3236
▁kohtuu	-11.3237
▁säädy	-11.3237
▁vaikeuksia	-11.3238
▁stalin	-11.3238
▁tuuman	-11.3238
▁latvia	-11.3241
▁geeni	-11.3241
▁pyydä	-11.3242
▁kettu	-11.3243
▁jaana	-11.3245
▁korin	-11.3246
▁taaja	-11.3246
▁laitta	-11.3246
▁miekan	-11.3246
kuvan	-11.3247
▁roisto	-11.3248
▁hallussaan	-11.3248
▁palvo	-11.3249
stelee	-11.325
▁tunnista	-11.3253
▁pakotta	-11.3254
▁lund	-11.3257
▁pyhää	-11.3258
▁clo	-11.3259
▁poikkeuksellise	-11.3263
▁ulvo	-11.3265
päästö	-11.3267
kisoista	-11.3267
▁räjähtä	-11.3268
▁pudisti	-11.3268
▁sisilia	-11.3268
▁mäkelä	-11.3268
▁luokittelu	-11.3268
▁tilanteesta	-11.3269
▁marraskuun	-11.3269
▁välisenä	-11.3273
▁kilju	-11.3275
▁viitata	-11.3276
▁lakkautta	-11.3277
▁nojalla	-11.3277
▁liettua	-11.3278
▁mahti	-11.3278
▁vähentä	-11.3279
▁yhteistä	-11.328
▁kauha	-11.328
▁kodissa	-11.3283
▁liberaali	-11.3283
▁ympyrä	-11.3283
▁kaapi	-11.3285
valmiste	-11.3285
▁raiska	-11.3287
▁todistaja	-11.3287
uuskilpailut	-11.3288
▁teollisuuden	-11.3289
▁vuode	-11.3289
televi	-11.329
pussi	-11.329
▁vaisto	-11.3291
ralli	-11.3292
▁luulo	-11.3293
raita	-11.3294
▁fon	-11.3294
▁yleisin	-11.3298
▁vähäinen	-11.3298
▁sivusto	-11.3299
▁kolmesti	-11.3301
fran	-11.3301
▁nyyhkyt	-11.3303
▁lönnrot	-11.3303
▁virginia	-11.3303
▁perehty	-11.3304
[...]
